const unsigned char model[] = {
  0x20, 0x00, 0x00, 0x00, 0x54, 0x46, 0x4c, 0x33, 0x00, 0x00, 0x00, 0x00,
  0x00, 0x00, 0x12, 0x00, 0x1c, 0x00, 0x04, 0x00, 0x08, 0x00, 0x0c, 0x00,
  0x10, 0x00, 0x14, 0x00, 0x00, 0x00, 0x18, 0x00, 0x12, 0x00, 0x00, 0x00,
  0x03, 0x00, 0x00, 0x00, 0x84, 0x24, 0x00, 0x00, 0x90, 0x1c, 0x00, 0x00,
  0x78, 0x1c, 0x00, 0x00, 0x3c, 0x00, 0x00, 0x00, 0x04, 0x00, 0x00, 0x00,
  0x01, 0x00, 0x00, 0x00, 0x0c, 0x00, 0x00, 0x00, 0x08, 0x00, 0x0c, 0x00,
  0x04, 0x00, 0x08, 0x00, 0x08, 0x00, 0x00, 0x00, 0x08, 0x00, 0x00, 0x00,
  0x0c, 0x00, 0x00, 0x00, 0x13, 0x00, 0x00, 0x00, 0x6d, 0x69, 0x6e, 0x5f,
  0x72, 0x75, 0x6e, 0x74, 0x69, 0x6d, 0x65, 0x5f, 0x76, 0x65, 0x72, 0x73,
  0x69, 0x6f, 0x6e, 0x00, 0x0d, 0x00, 0x00, 0x00, 0x30, 0x1c, 0x00, 0x00,
  0x18, 0x1c, 0x00, 0x00, 0xcc, 0x1b, 0x00, 0x00, 0x9c, 0x1b, 0x00, 0x00,
  0x9c, 0x18, 0x00, 0x00, 0xc4, 0x17, 0x00, 0x00, 0x44, 0x00, 0x00, 0x00,
  0x3c, 0x00, 0x00, 0x00, 0x34, 0x00, 0x00, 0x00, 0x2c, 0x00, 0x00, 0x00,
  0x24, 0x00, 0x00, 0x00, 0x1c, 0x00, 0x00, 0x00, 0x04, 0x00, 0x00, 0x00,
  0x6a, 0xe3, 0xff, 0xff, 0x04, 0x00, 0x00, 0x00, 0x05, 0x00, 0x00, 0x00,
  0x31, 0x2e, 0x35, 0x2e, 0x30, 0x00, 0x00, 0x00, 0x4c, 0xe3, 0xff, 0xff,
  0x50, 0xe3, 0xff, 0xff, 0x54, 0xe3, 0xff, 0xff, 0x58, 0xe3, 0xff, 0xff,
  0x5c, 0xe3, 0xff, 0xff, 0x92, 0xe3, 0xff, 0xff, 0x04, 0x00, 0x00, 0x00,
  0x70, 0x17, 0x00, 0x00, 0x06, 0xc6, 0xe1, 0x1e, 0xf9, 0xf3, 0x76, 0x2b,
  0x33, 0x22, 0x2a, 0xe0, 0x48, 0x02, 0xf2, 0x16, 0x20, 0xfe, 0xe7, 0xbc,
  0xdd, 0xeb, 0xbb, 0x55, 0x47, 0x9a, 0x1c, 0xfa, 0xf0, 0x0e, 0x77, 0xe2,
  0x04, 0xcd, 0x06, 0x19, 0xf3, 0x58, 0xcc, 0xc7, 0x2f, 0x1d, 0xbd, 0xd6,
  0x11, 0xea, 0x39, 0x23, 0x3e, 0x16, 0xdc, 0xe2, 0x42, 0x57, 0xf6, 0xcd,
  0xf5, 0x05, 0x42, 0xf6, 0x16, 0xe3, 0x1c, 0xe7, 0xdb, 0xef, 0xf0, 0xef,
  0xf0, 0x12, 0x09, 0x1a, 0x1c, 0x19, 0xd9, 0x1c, 0xe5, 0x44, 0xf4, 0x42,
  0xd3, 0x13, 0xf9, 0x1b, 0x00, 0x24, 0xeb, 0x20, 0xec, 0x29, 0xfd, 0x0f,
  0x3a, 0x11, 0xec, 0x16, 0xcc, 0xf9, 0xd3, 0x38, 0x52, 0xc8, 0x0b, 0x21,
  0xe6, 0x26, 0x13, 0xed, 0xd5, 0x20, 0x03, 0x15, 0xf5, 0xdc, 0xfb, 0x12,
  0x1e, 0x26, 0xfa, 0x45, 0xd2, 0xcc, 0xd4, 0xce, 0x2b, 0xf6, 0xdd, 0xce,
  0x32, 0x3a, 0xfe, 0xba, 0xa1, 0xc7, 0x2f, 0x06, 0xd2, 0xc9, 0xff, 0x1b,
  0xf9, 0x27, 0x23, 0xff, 0x10, 0x20, 0x0c, 0x4f, 0xdf, 0x29, 0xd8, 0x1d,
  0xfc, 0x1d, 0x09, 0x44, 0xb8, 0x23, 0x08, 0x07, 0x0b, 0xd1, 0x2b, 0x0d,
  0xfc, 0xcc, 0xf1, 0x3d, 0x18, 0xb6, 0xdd, 0x02, 0x26, 0xf8, 0x14, 0xfb,
  0xe5, 0xe4, 0xcc, 0x25, 0xe3, 0x04, 0xf3, 0xf9, 0x24, 0xf0, 0x07, 0xa9,
  0x20, 0xea, 0xd1, 0xd1, 0x0a, 0xb3, 0x11, 0xf4, 0x01, 0x23, 0xf7, 0x14,
  0x20, 0xd3, 0x2a, 0xd6, 0x06, 0x14, 0xfa, 0xf8, 0xfc, 0x17, 0xe6, 0x46,
  0x26, 0x1e, 0x19, 0xd7, 0xc0, 0xf6, 0xcd, 0x02, 0xf7, 0x0c, 0x01, 0xe2,
  0x2d, 0xdb, 0xd0, 0x22, 0xe1, 0x14, 0x22, 0xe5, 0x19, 0x0d, 0x0a, 0xfc,
  0xc4, 0x19, 0x28, 0x3a, 0x16, 0x8c, 0x4f, 0x10, 0xf3, 0xdc, 0x23, 0xca,
  0x05, 0xd8, 0x14, 0x4c, 0xef, 0xb1, 0xdd, 0xdd, 0x0a, 0xed, 0xe4, 0x22,
  0xd6, 0x1e, 0x13, 0x05, 0x37, 0xec, 0xff, 0x08, 0xcd, 0x15, 0x24, 0x3a,
  0x32, 0x2b, 0x0e, 0x0b, 0xfd, 0xc5, 0x06, 0x03, 0x30, 0x00, 0xea, 0xf6,
  0xf8, 0x17, 0x20, 0x0f, 0x09, 0x1a, 0x45, 0xea, 0xbe, 0xcb, 0x0b, 0x0c,
  0xf0, 0xfd, 0x22, 0x2c, 0xea, 0xdc, 0x09, 0x17, 0xdf, 0xc8, 0x32, 0x21,
  0x12, 0x10, 0x0f, 0xef, 0x09, 0x00, 0x22, 0x00, 0x26, 0xff, 0xf0, 0x06,
  0x3e, 0xeb, 0x43, 0x0c, 0x0b, 0xde, 0xbe, 0xf6, 0xe5, 0x2c, 0x19, 0xdf,
  0x16, 0x03, 0xbe, 0xf7, 0xec, 0x1f, 0xe4, 0x26, 0xfc, 0xe7, 0xcc, 0x2b,
  0x14, 0xde, 0x13, 0x2c, 0x19, 0x0f, 0x02, 0x4f, 0xea, 0x0a, 0x35, 0xdf,
  0xdc, 0x22, 0xe3, 0xfe, 0x1c, 0xea, 0xe4, 0xfe, 0xf0, 0xfc, 0x0c, 0xe5,
  0x00, 0x2d, 0xf4, 0x20, 0x31, 0xdc, 0xfb, 0x3f, 0x1a, 0x47, 0xe8, 0x10,
  0xfa, 0xef, 0xe0, 0x0a, 0xb7, 0x17, 0x0f, 0x1b, 0x23, 0x22, 0xfa, 0x23,
  0xe1, 0xcb, 0xf0, 0xf7, 0x12, 0x12, 0xfb, 0xef, 0xd1, 0x02, 0xe2, 0x0a,
  0xfc, 0x01, 0xf1, 0xf2, 0x16, 0xd1, 0xeb, 0x51, 0x19, 0xc8, 0xea, 0xbf,
  0xe3, 0x16, 0xdd, 0x3a, 0xcc, 0x4a, 0x3a, 0xf3, 0xea, 0xef, 0xf3, 0x1f,
  0x09, 0x2d, 0xc3, 0xb9, 0x0b, 0xed, 0xfa, 0xd7, 0xf5, 0xf3, 0xd0, 0x05,
  0x0b, 0x3d, 0xe3, 0xc7, 0x1b, 0x04, 0xd5, 0x21, 0xbd, 0xf5, 0x08, 0xe1,
  0xfc, 0x35, 0xba, 0xed, 0x17, 0x0a, 0xe8, 0x30, 0xf6, 0xf7, 0x2f, 0x3b,
  0xdc, 0x15, 0x02, 0x0b, 0x1b, 0x18, 0xcc, 0x1a, 0x1a, 0xef, 0x14, 0x0a,
  0xb8, 0x2b, 0xf0, 0x01, 0xc3, 0xe8, 0x2d, 0x23, 0xa9, 0x16, 0xcd, 0xcb,
  0x07, 0xfd, 0xc7, 0xc7, 0xe0, 0x2c, 0x16, 0xb6, 0xc5, 0xda, 0xf1, 0x26,
  0xe7, 0xf7, 0xe0, 0xfe, 0xa7, 0xb9, 0xbb, 0xe0, 0xba, 0xf9, 0xaa, 0x22,
  0x18, 0x4d, 0x08, 0xdc, 0xec, 0xed, 0xfc, 0x1f, 0x02, 0xf4, 0x12, 0xe9,
  0xfe, 0x01, 0xf1, 0xdb, 0x1b, 0xaf, 0x29, 0x32, 0xf7, 0xec, 0xf1, 0xdc,
  0x2f, 0xec, 0xf8, 0x42, 0xb7, 0x28, 0xea, 0xf6, 0xee, 0xf2, 0xf1, 0xcf,
  0x14, 0x44, 0x4a, 0xd3, 0xf5, 0xc8, 0xdb, 0x01, 0x03, 0xef, 0x08, 0x15,
  0xb8, 0xda, 0x0a, 0x02, 0xe8, 0xf3, 0x48, 0x14, 0xe9, 0xc8, 0x0f, 0x0b,
  0xe3, 0xd8, 0x20, 0x2c, 0xdc, 0xf6, 0x48, 0xd8, 0x0d, 0x25, 0xc6, 0xf8,
  0xc8, 0xcc, 0x05, 0x12, 0x03, 0xf7, 0xe1, 0x54, 0xfa, 0xf7, 0xd6, 0xe4,
  0xf7, 0x02, 0x16, 0x04, 0xad, 0x24, 0x0a, 0xf8, 0xcb, 0xca, 0x1a, 0x53,
  0x2f, 0xfb, 0x26, 0x2b, 0x23, 0xe3, 0x00, 0xe7, 0x01, 0xff, 0x0b, 0x04,
  0xd9, 0xf2, 0xfb, 0x0a, 0x17, 0x00, 0x00, 0xf5, 0x50, 0x2c, 0xe5, 0xb9,
  0xf9, 0x10, 0xd0, 0x35, 0xed, 0x30, 0x2c, 0x31, 0x18, 0xf4, 0xde, 0x27,
  0x03, 0xe3, 0x31, 0x0b, 0xaa, 0xd8, 0xdb, 0x20, 0xeb, 0x05, 0xb6, 0x0f,
  0x18, 0xfe, 0x12, 0x24, 0x04, 0xeb, 0xe8, 0x1b, 0xf2, 0x01, 0xb2, 0x0e,
  0x04, 0xe0, 0xca, 0x08, 0x03, 0x22, 0xd7, 0xea, 0xc2, 0xde, 0xd4, 0xef,
  0xd1, 0x0f, 0xf6, 0xf7, 0xbe, 0x12, 0xc5, 0xf9, 0xf5, 0x1e, 0xdb, 0x26,
  0xb9, 0xe0, 0xb1, 0x19, 0xde, 0x15, 0x41, 0x18, 0x0a, 0x06, 0xe6, 0xeb,
  0x17, 0xfb, 0xe6, 0xd5, 0xad, 0x23, 0xf4, 0x02, 0x32, 0x28, 0xe6, 0xee,
  0xd4, 0xde, 0xf5, 0x06, 0x10, 0x1a, 0xef, 0xb3, 0xe7, 0xd7, 0x10, 0xe4,
  0x2a, 0x06, 0x4f, 0xe6, 0x13, 0xfe, 0x2f, 0x04, 0xf2, 0xb6, 0xc5, 0xfa,
  0xe8, 0x0b, 0x1b, 0xea, 0x06, 0x29, 0xd0, 0xff, 0x12, 0xf1, 0x2c, 0x14,
  0x44, 0x41, 0x57, 0x25, 0xf6, 0xe2, 0x2e, 0x01, 0xfd, 0x22, 0x1d, 0xe4,
  0x3d, 0x11, 0x19, 0xf9, 0x0c, 0x52, 0x05, 0xda, 0x14, 0xe0, 0x36, 0x17,
  0xe6, 0xeb, 0xff, 0x16, 0x01, 0xfd, 0x4b, 0x17, 0x0b, 0x0f, 0x32, 0x1c,
  0x0d, 0x00, 0xd5, 0x0d, 0x29, 0xff, 0xfc, 0x17, 0x02, 0x0b, 0xf8, 0x2a,
  0xef, 0x00, 0xeb, 0xd0, 0x03, 0xce, 0xc6, 0x31, 0x49, 0x0d, 0x23, 0x0a,
  0xd3, 0x32, 0x0e, 0xf1, 0xe7, 0x03, 0xfb, 0xf6, 0x36, 0x29, 0xce, 0xf8,
  0x21, 0xf6, 0x49, 0xf5, 0x10, 0xed, 0xee, 0x19, 0x2a, 0xd8, 0x0f, 0xec,
  0x01, 0x13, 0x18, 0xe5, 0xdc, 0x1b, 0xdc, 0xed, 0xff, 0xe8, 0x23, 0x56,
  0xde, 0x00, 0x3a, 0x09, 0xf5, 0x0c, 0x11, 0x22, 0x27, 0xf2, 0xb3, 0xff,
  0x25, 0xee, 0xea, 0x3a, 0x2c, 0x1a, 0xe7, 0x11, 0x0a, 0x19, 0xcc, 0xfb,
  0xf8, 0xeb, 0xd5, 0xb6, 0xde, 0xcc, 0x31, 0xcd, 0xcc, 0xf4, 0xfc, 0x40,
  0x37, 0xf7, 0x2f, 0x29, 0xd5, 0xee, 0x19, 0x23, 0x22, 0xf3, 0x04, 0x3a,
  0xbb, 0xda, 0xea, 0x03, 0x02, 0xf8, 0x31, 0x09, 0xf7, 0xff, 0xdd, 0xf9,
  0x0f, 0x00, 0xef, 0xdf, 0xc7, 0x21, 0x0b, 0xb0, 0x14, 0xfe, 0xf4, 0xf7,
  0xcf, 0xd5, 0xd8, 0xde, 0xe8, 0x42, 0xc7, 0x14, 0xe7, 0x1e, 0xce, 0x1b,
  0xd8, 0x04, 0x19, 0xde, 0x0d, 0x23, 0x19, 0xf1, 0xd2, 0xf3, 0xec, 0xf3,
  0xdd, 0x29, 0x0e, 0x15, 0xd5, 0xbb, 0xc9, 0xe1, 0x10, 0xc3, 0xc7, 0x2f,
  0xeb, 0xf5, 0xe6, 0xe7, 0xfb, 0xb6, 0x49, 0x24, 0xd6, 0xd5, 0x52, 0x26,
  0xc9, 0xe0, 0xfe, 0x2a, 0x05, 0x35, 0xd9, 0xb1, 0x2a, 0xfe, 0xb3, 0xef,
  0x32, 0xd4, 0x5e, 0x29, 0x13, 0xe0, 0x3a, 0xff, 0xe6, 0x02, 0xcf, 0x03,
  0x12, 0xe9, 0xcd, 0x21, 0xee, 0xf5, 0x53, 0xd6, 0xfa, 0x2f, 0x23, 0xcd,
  0x0f, 0x19, 0xf6, 0x1e, 0x37, 0x0e, 0x0e, 0x0b, 0x05, 0x16, 0xd4, 0xfd,
  0xe9, 0x29, 0xe9, 0xfb, 0xf7, 0x3d, 0x15, 0xc6, 0x13, 0xc9, 0xfe, 0xd5,
  0xea, 0xf5, 0xcf, 0x07, 0x0f, 0x14, 0xf7, 0xd0, 0xfe, 0xe0, 0xe6, 0x0b,
  0x08, 0x28, 0x2c, 0xd9, 0x0e, 0xf6, 0x2d, 0x00, 0x2b, 0xf3, 0xeb, 0xf9,
  0xf9, 0x2b, 0xe8, 0x13, 0xef, 0x16, 0x1a, 0x14, 0x27, 0x33, 0xc6, 0xea,
  0xf1, 0x08, 0x27, 0x2b, 0x0a, 0x1d, 0x1e, 0xe3, 0x0c, 0xf4, 0xd7, 0x17,
  0xee, 0xf0, 0x0a, 0x15, 0x21, 0xcd, 0x28, 0x23, 0xf2, 0x3f, 0x42, 0x2a,
  0x15, 0x22, 0xdc, 0x01, 0xcd, 0x12, 0xfe, 0x01, 0x0c, 0x36, 0x20, 0xd8,
  0xf2, 0xde, 0xf0, 0xf9, 0x1c, 0x2b, 0x04, 0x19, 0xd3, 0x1a, 0x0a, 0x03,
  0x40, 0x0b, 0x19, 0x0c, 0xd4, 0x1c, 0x11, 0xfc, 0x0e, 0xe2, 0x0b, 0xdb,
  0xf4, 0x07, 0x36, 0xcd, 0x10, 0xe3, 0xda, 0xc7, 0x04, 0x12, 0xcd, 0x2b,
  0x04, 0x0b, 0x09, 0xf7, 0xd6, 0xcc, 0x00, 0x1e, 0xf0, 0x1d, 0xd7, 0x46,
  0x05, 0x10, 0xbf, 0x07, 0xec, 0xd8, 0xc4, 0xf0, 0x37, 0x11, 0x1b, 0xe2,
  0xc9, 0x3b, 0xe3, 0x06, 0xe0, 0x1f, 0x24, 0xd3, 0xf6, 0x34, 0xf8, 0x0e,
  0xcb, 0x46, 0x06, 0xbb, 0xd7, 0xda, 0xda, 0xdc, 0xfd, 0xea, 0x12, 0x22,
  0x14, 0x02, 0x3f, 0xf0, 0xea, 0xf4, 0x14, 0x23, 0x16, 0xeb, 0xfa, 0xd1,
  0x25, 0xd5, 0x04, 0xfc, 0x2e, 0xf0, 0x69, 0x0a, 0x0f, 0x10, 0xc4, 0xf5,
  0x3b, 0xfa, 0x08, 0xf2, 0x35, 0x0a, 0x0d, 0x15, 0xe1, 0x16, 0x31, 0x14,
  0xdb, 0x3e, 0xf3, 0x01, 0x2b, 0x2e, 0xa4, 0x36, 0x34, 0xf8, 0xe8, 0x09,
  0x17, 0x24, 0x2b, 0xee, 0x42, 0x02, 0x08, 0xc2, 0xe6, 0x0b, 0x17, 0x0b,
  0x1f, 0x0d, 0xf4, 0xd3, 0xe2, 0xf1, 0xc6, 0x1b, 0x19, 0x24, 0x0b, 0x48,
  0x10, 0x10, 0xed, 0x16, 0x23, 0x41, 0x3b, 0x19, 0x31, 0x31, 0x0e, 0x18,
  0x25, 0x07, 0x10, 0xd8, 0x01, 0x21, 0x02, 0xf1, 0xd4, 0x30, 0x03, 0x13,
  0xff, 0xd0, 0x22, 0xcd, 0x0c, 0x28, 0xef, 0x3a, 0x1d, 0xe0, 0xe3, 0x11,
  0x44, 0x11, 0xe9, 0xdf, 0x30, 0x01, 0xdc, 0xd8, 0x1a, 0xe7, 0x04, 0x08,
  0xc1, 0x3b, 0x05, 0x30, 0xfd, 0x40, 0xfd, 0xff, 0xf9, 0xf9, 0x00, 0x27,
  0x38, 0xed, 0x16, 0x34, 0xf2, 0xdc, 0x23, 0x14, 0xd9, 0x37, 0x5a, 0xd9,
  0xd8, 0x34, 0xfe, 0x10, 0x04, 0x23, 0xc9, 0x09, 0x29, 0xe4, 0x3e, 0xe2,
  0xf1, 0x22, 0xf4, 0x14, 0x09, 0xf3, 0x37, 0xed, 0x1e, 0xc5, 0xfb, 0x27,
  0xe1, 0x0a, 0x42, 0xe3, 0x10, 0xe1, 0xfd, 0x4e, 0xe7, 0xf7, 0xd0, 0x12,
  0xdf, 0x17, 0xdf, 0xea, 0x21, 0xde, 0xea, 0x40, 0xca, 0x25, 0xef, 0xff,
  0xf8, 0xbe, 0xf5, 0xfb, 0xb4, 0xbe, 0xdf, 0x2a, 0xe1, 0x33, 0x1a, 0xf3,
  0xd1, 0x3c, 0x13, 0x28, 0x4b, 0xcc, 0xde, 0x16, 0x4f, 0xdf, 0xde, 0xb4,
  0xd4, 0xd2, 0x49, 0xe4, 0xf3, 0xd3, 0x23, 0xd4, 0xfa, 0x3a, 0xe7, 0x2f,
  0xdf, 0xfc, 0xf4, 0x12, 0xe0, 0x3f, 0x13, 0xe1, 0x16, 0x2e, 0x33, 0x3a,
  0x22, 0x31, 0x05, 0x29, 0x28, 0x1a, 0xc2, 0xff, 0xdf, 0xfc, 0xf4, 0x41,
  0x07, 0xf8, 0x15, 0xc8, 0x18, 0xbc, 0x49, 0x08, 0xdb, 0xfb, 0xd4, 0x22,
  0x4a, 0xd8, 0xe7, 0x55, 0x2f, 0x1e, 0xfa, 0xcd, 0xfe, 0xdd, 0x26, 0xcb,
  0xea, 0xfb, 0x18, 0xec, 0xfb, 0xe5, 0x03, 0xe7, 0xdf, 0xf2, 0x14, 0x09,
  0x1c, 0xe2, 0xe7, 0x1b, 0xed, 0xef, 0xdd, 0xe7, 0x29, 0xff, 0xf6, 0x0a,
  0x4b, 0xc6, 0x1e, 0xed, 0xd1, 0x02, 0x29, 0xef, 0xdd, 0xb7, 0x15, 0xf1,
  0xdb, 0xff, 0x00, 0xee, 0x08, 0x17, 0xec, 0x1b, 0x38, 0x17, 0x20, 0xc4,
  0x15, 0x49, 0x37, 0xdf, 0x34, 0xf4, 0xfb, 0xe0, 0xf5, 0xd0, 0x0b, 0xec,
  0xc6, 0xe0, 0x2a, 0xe0, 0x04, 0x0e, 0xe7, 0x17, 0xd3, 0xd7, 0x29, 0x30,
  0x33, 0x36, 0x10, 0xfa, 0x43, 0xe2, 0x42, 0xd9, 0xdc, 0xf2, 0x20, 0xf1,
  0x11, 0x0a, 0xf9, 0x05, 0xe5, 0xfb, 0xdf, 0x19, 0x13, 0xe6, 0x48, 0xd6,
  0x05, 0x2c, 0x46, 0x0b, 0xf6, 0xe8, 0xed, 0x0e, 0xb4, 0xfe, 0xfc, 0x22,
  0x03, 0xb9, 0x42, 0xab, 0xf1, 0xd9, 0xd7, 0xe6, 0xbc, 0xe6, 0x27, 0x2c,
  0xb6, 0x09, 0xdb, 0x11, 0xe7, 0xf8, 0xd4, 0xd2, 0xed, 0x33, 0xf2, 0x41,
  0x2d, 0x1b, 0x1c, 0x48, 0xec, 0xf7, 0x1c, 0x2b, 0x27, 0x07, 0xf8, 0xff,
  0xfb, 0x02, 0x0d, 0x3b, 0x16, 0x10, 0x0a, 0x3c, 0x47, 0x58, 0x25, 0xe0,
  0x02, 0x05, 0x35, 0x20, 0xf7, 0xf3, 0xfe, 0xee, 0x38, 0xf4, 0x1e, 0xdc,
  0xe7, 0xe7, 0x45, 0xfd, 0xda, 0xc6, 0xf8, 0xe9, 0x14, 0x11, 0x04, 0xdd,
  0xf0, 0x21, 0x1e, 0xec, 0x36, 0x00, 0xec, 0xf7, 0xe6, 0x06, 0x30, 0x45,
  0xbc, 0x1c, 0x14, 0x0f, 0xde, 0xfa, 0xef, 0xe3, 0xf9, 0x15, 0x04, 0x00,
  0x22, 0x3e, 0xff, 0x40, 0x07, 0x21, 0x1e, 0x00, 0xdc, 0x0a, 0xe9, 0x53,
  0x05, 0x0a, 0x1a, 0xff, 0x18, 0x38, 0xe0, 0x28, 0xde, 0xb1, 0x18, 0xea,
  0xf0, 0x10, 0xfe, 0xdc, 0x32, 0xe3, 0xf1, 0xf7, 0x30, 0xf2, 0xeb, 0xbe,
  0xdd, 0xd9, 0xc4, 0xfa, 0x3c, 0x22, 0xd1, 0xfe, 0x12, 0x0f, 0x32, 0xc4,
  0xb4, 0x14, 0x24, 0x31, 0x03, 0xf4, 0xf2, 0xe7, 0x11, 0xcf, 0x31, 0x48,
  0x33, 0x38, 0xe9, 0x48, 0xe8, 0xf2, 0x18, 0x10, 0x08, 0xe3, 0xf6, 0xcc,
  0xe1, 0x09, 0xdb, 0xf4, 0x04, 0xf9, 0xd5, 0xe1, 0xfc, 0x1a, 0xf5, 0x1a,
  0x24, 0x05, 0x1d, 0xe4, 0x45, 0xe8, 0x0c, 0xbe, 0x10, 0xe7, 0x12, 0x11,
  0x0d, 0x02, 0xe2, 0x1e, 0x0c, 0x19, 0xde, 0xec, 0x14, 0xf7, 0x0f, 0xc8,
  0x13, 0xf9, 0x1b, 0xfb, 0xfc, 0xe0, 0xef, 0xff, 0xe3, 0xbd, 0x01, 0xe7,
  0x0d, 0xe8, 0x28, 0x19, 0x33, 0xf7, 0x2a, 0x2b, 0x16, 0xcb, 0x35, 0xc3,
  0x26, 0xf4, 0xf1, 0xae, 0xbf, 0xde, 0xec, 0xcf, 0xc4, 0xdd, 0xe7, 0xf2,
  0xcd, 0xf8, 0x22, 0xa8, 0x13, 0xd8, 0xce, 0xd7, 0xd7, 0xc7, 0xe6, 0xb8,
  0xc4, 0x36, 0x07, 0x29, 0xe0, 0x13, 0xb1, 0xef, 0xf3, 0x1a, 0x13, 0x34,
  0xbf, 0xea, 0x33, 0xbe, 0xfa, 0x23, 0x0c, 0xf1, 0xf7, 0xd9, 0x0c, 0x35,
  0x0c, 0x0f, 0xd0, 0xbc, 0xda, 0xfd, 0xc1, 0x10, 0xed, 0xa7, 0xd9, 0x2a,
  0xfe, 0xc0, 0x07, 0xa5, 0xda, 0x36, 0x24, 0x10, 0x0b, 0x1a, 0x14, 0xf0,
  0xeb, 0x02, 0xec, 0x3f, 0x4b, 0x02, 0xf9, 0x42, 0xec, 0x2c, 0x12, 0x1d,
  0x18, 0x17, 0xdf, 0xd3, 0x09, 0xe3, 0x2e, 0x35, 0x21, 0xd5, 0x58, 0x18,
  0x0a, 0xe9, 0xd6, 0x1a, 0xf7, 0xfd, 0xd8, 0x20, 0xdb, 0x0d, 0x03, 0x04,
  0xc8, 0xf2, 0xb5, 0xc9, 0xef, 0x1b, 0x16, 0xe8, 0x06, 0x41, 0xf6, 0xc5,
  0x0d, 0xb7, 0x05, 0xcf, 0x1d, 0xc4, 0x3a, 0x26, 0x91, 0xf4, 0x08, 0xb4,
  0xfc, 0x03, 0x00, 0xf2, 0xdd, 0x55, 0x18, 0x11, 0xe4, 0x23, 0xfb, 0x17,
  0xdc, 0xf4, 0xba, 0x51, 0xc9, 0xbe, 0xa7, 0xce, 0xb9, 0x03, 0xcb, 0x05,
  0xfb, 0x11, 0xc3, 0x3b, 0xb1, 0x3c, 0xb1, 0x11, 0xd0, 0xf4, 0xe5, 0xe8,
  0xe4, 0xfc, 0xea, 0x24, 0x1c, 0xcf, 0xa5, 0x0a, 0x2b, 0xea, 0xde, 0x07,
  0xf4, 0x1a, 0x48, 0x11, 0xdd, 0xff, 0xf2, 0x04, 0xf2, 0xe8, 0x0f, 0xf7,
  0x0f, 0x02, 0x23, 0x06, 0x33, 0xd2, 0x05, 0x31, 0x06, 0x10, 0xfb, 0x1b,
  0x1e, 0xc6, 0xfc, 0x08, 0x05, 0x20, 0x26, 0x03, 0x1c, 0x06, 0x03, 0x05,
  0xc1, 0xf4, 0x1a, 0xf0, 0x1d, 0x0c, 0xc3, 0x07, 0x17, 0xe3, 0xef, 0x25,
  0xd3, 0x05, 0xee, 0xea, 0x0a, 0x04, 0xf8, 0x12, 0x2d, 0xd4, 0x11, 0xee,
  0xde, 0x09, 0xd8, 0xda, 0xe9, 0xf6, 0xe9, 0xa7, 0x23, 0x09, 0xa5, 0x01,
  0xe5, 0xf8, 0x31, 0x92, 0xa3, 0xd9, 0x0a, 0x2c, 0xc4, 0xb3, 0xa7, 0xb7,
  0x37, 0xfd, 0x31, 0xf4, 0xf6, 0xc2, 0xd5, 0xda, 0x32, 0xb2, 0xe7, 0xc1,
  0x5c, 0x1c, 0x4e, 0xe1, 0xe1, 0x02, 0x14, 0xd8, 0x30, 0x09, 0x0f, 0xbc,
  0x59, 0xe6, 0x42, 0x09, 0xf7, 0x1d, 0x0d, 0xb1, 0xed, 0xfb, 0xff, 0xeb,
  0x40, 0xe6, 0x5d, 0x2d, 0xfc, 0x10, 0xcc, 0x24, 0x2d, 0x4e, 0x01, 0xea,
  0xfb, 0xfc, 0x19, 0x14, 0x2f, 0xe2, 0xf9, 0xf3, 0x22, 0xfb, 0x03, 0x3d,
  0xed, 0x0b, 0xe6, 0x0a, 0x2b, 0x01, 0x29, 0x47, 0x09, 0x37, 0x39, 0xdd,
  0x05, 0x29, 0x50, 0xff, 0x11, 0x16, 0x1a, 0xe0, 0x58, 0x33, 0x3c, 0xff,
  0x07, 0x0a, 0xec, 0xf5, 0xf4, 0x4d, 0x41, 0x0d, 0x12, 0x0a, 0xe5, 0x16,
  0xf7, 0x20, 0x38, 0xd6, 0xc7, 0x2f, 0x55, 0xdc, 0xf8, 0x30, 0x9e, 0x41,
  0x3c, 0x46, 0xf0, 0x08, 0x15, 0x2e, 0xe1, 0xd0, 0x31, 0xf7, 0x15, 0xd1,
  0xf1, 0x0e, 0xee, 0x01, 0x46, 0x05, 0xf1, 0xdd, 0xeb, 0xe2, 0xe0, 0x29,
  0x21, 0x11, 0xf6, 0xeb, 0xec, 0xdb, 0xe1, 0xfc, 0x08, 0xf8, 0xc2, 0xec,
  0x01, 0xfc, 0x16, 0xf1, 0x26, 0xff, 0xef, 0x1a, 0x0c, 0x03, 0x03, 0xc9,
  0x19, 0xe4, 0xe4, 0xf5, 0x12, 0x40, 0xff, 0x31, 0xf5, 0x39, 0x00, 0x20,
  0x16, 0xee, 0x10, 0xd7, 0x13, 0xe6, 0xfe, 0xed, 0xff, 0x0e, 0x26, 0xff,
  0xd7, 0x25, 0x0c, 0xdf, 0xbc, 0x25, 0xe8, 0xe1, 0x0d, 0x1b, 0xde, 0x2e,
  0xfd, 0xeb, 0x15, 0xec, 0x36, 0xfd, 0x36, 0xbb, 0xd7, 0x26, 0x0d, 0x1f,
  0xc0, 0x0b, 0x07, 0x37, 0xe9, 0xe7, 0xee, 0xf8, 0xc4, 0x10, 0x16, 0xd8,
  0x1e, 0x01, 0xc9, 0xcf, 0xfb, 0x39, 0x42, 0x37, 0xf6, 0x0d, 0xd1, 0x37,
  0xfa, 0xe3, 0x09, 0x31, 0x35, 0xee, 0x0e, 0x2c, 0xf7, 0xd3, 0xf1, 0x47,
  0xfd, 0x17, 0xd2, 0xd6, 0x16, 0x3d, 0x17, 0x12, 0x01, 0x38, 0x46, 0xe7,
  0xf6, 0xd2, 0xcd, 0xf9, 0x0e, 0xd1, 0xc1, 0xd2, 0xac, 0xd7, 0x1a, 0x29,
  0x16, 0x0a, 0xf0, 0xfb, 0xe1, 0x35, 0x16, 0x1b, 0x29, 0x0a, 0x0f, 0xd0,
  0xe2, 0x53, 0x03, 0xf3, 0x42, 0x1e, 0x02, 0xdb, 0x36, 0x20, 0x05, 0x00,
  0xde, 0x1b, 0x04, 0xf0, 0x4b, 0x31, 0x20, 0xd4, 0x3e, 0xd1, 0x18, 0x2b,
  0x17, 0xc4, 0xed, 0x00, 0xf4, 0xd8, 0x05, 0x1b, 0x06, 0x1a, 0x4f, 0x4c,
  0xea, 0x02, 0x33, 0xfe, 0xf9, 0x04, 0x0a, 0x0e, 0xc9, 0xe1, 0x09, 0x2b,
  0x2b, 0x18, 0x32, 0x17, 0x07, 0x08, 0xf5, 0x1b, 0xf6, 0xee, 0x32, 0xbb,
  0x10, 0x04, 0xc3, 0x41, 0x09, 0xd8, 0x54, 0x4d, 0xc5, 0xd6, 0xdd, 0x9f,
  0x3c, 0xdf, 0x05, 0x14, 0x1d, 0x03, 0xfe, 0xbd, 0x19, 0x22, 0x47, 0xfd,
  0xb1, 0x1b, 0xfa, 0xdd, 0x03, 0xfb, 0x44, 0xfb, 0xe8, 0xe6, 0xc4, 0xed,
  0x26, 0xd1, 0x0d, 0x4d, 0x0d, 0x05, 0xca, 0x0c, 0xe2, 0x28, 0x11, 0xbb,
  0xf0, 0x0b, 0xdf, 0xc3, 0xfe, 0x0c, 0x14, 0xd7, 0x0f, 0x1d, 0x07, 0xcf,
  0x0d, 0x00, 0xff, 0xf7, 0x04, 0xfc, 0xe5, 0xdd, 0xae, 0xf0, 0x17, 0xd0,
  0x3e, 0xe1, 0xf7, 0x2f, 0x31, 0x05, 0xd6, 0xee, 0x1e, 0xf1, 0xf6, 0x3e,
  0x42, 0xe8, 0xeb, 0x01, 0x47, 0xd3, 0x28, 0x1f, 0x0e, 0x0f, 0xdd, 0xee,
  0x08, 0x0d, 0xf4, 0xed, 0xe6, 0x07, 0x02, 0x21, 0x05, 0xcd, 0x3f, 0xee,
  0x49, 0xd2, 0xfa, 0xf4, 0x24, 0xd5, 0xcb, 0xc7, 0x1d, 0xd8, 0x03, 0x00,
  0xd6, 0xe6, 0x27, 0xeb, 0xfc, 0x29, 0x20, 0xf6, 0xda, 0x1b, 0xc8, 0x63,
  0xe1, 0x4b, 0x27, 0x2f, 0xdc, 0x13, 0x06, 0x37, 0xda, 0xf4, 0xf3, 0xf8,
  0x15, 0x38, 0x2a, 0x0f, 0xfc, 0xd9, 0xd5, 0x03, 0xf8, 0xe2, 0x31, 0xcf,
  0x17, 0x09, 0xdc, 0xda, 0xd2, 0xf2, 0x1a, 0x10, 0x12, 0x1e, 0x25, 0x0a,
  0x06, 0xff, 0x13, 0xfc, 0x48, 0x0f, 0xf7, 0xf2, 0xfe, 0xf4, 0xe6, 0x1b,
  0x11, 0x34, 0xf7, 0x19, 0x26, 0x2b, 0xc6, 0x1c, 0x18, 0xcc, 0x1b, 0xf9,
  0x12, 0xfd, 0xed, 0xf8, 0x1b, 0xfc, 0x07, 0xd0, 0x3d, 0x1b, 0x0e, 0x16,
  0xbc, 0x0e, 0xde, 0xe9, 0xd2, 0xc0, 0xfc, 0x2c, 0x29, 0x3c, 0xe3, 0x11,
  0xe9, 0x1c, 0x08, 0x0a, 0xdd, 0xfb, 0xe1, 0x46, 0xec, 0xd7, 0xdc, 0xfb,
  0xfc, 0xd4, 0x3a, 0xd0, 0xce, 0xe1, 0xf6, 0x2c, 0xf5, 0xec, 0x19, 0x2f,
  0xca, 0xea, 0x11, 0xc6, 0x46, 0xe8, 0x08, 0xf7, 0xb3, 0xb6, 0x19, 0xd4,
  0xf7, 0xd8, 0xe7, 0xf0, 0x09, 0xe7, 0xe4, 0xff, 0xee, 0x08, 0xe4, 0xfa,
  0x34, 0xfb, 0x3e, 0x15, 0xd0, 0x18, 0x08, 0x46, 0xf4, 0x18, 0xfd, 0x1d,
  0xe3, 0x14, 0x51, 0x32, 0x2d, 0x2d, 0x34, 0x09, 0xe7, 0x09, 0xe2, 0x00,
  0xed, 0x48, 0x1c, 0xf7, 0x4a, 0x09, 0x50, 0xfa, 0xd4, 0x0e, 0xd5, 0xf5,
  0xdc, 0x09, 0x09, 0x15, 0xf8, 0xe1, 0x29, 0xb9, 0xfd, 0xdc, 0xdb, 0xf5,
  0x22, 0xea, 0x0a, 0x00, 0xba, 0x0d, 0xfd, 0xc5, 0xe2, 0xd8, 0x29, 0x21,
  0x3e, 0x1f, 0x07, 0x20, 0xb3, 0xde, 0x2f, 0x27, 0xdc, 0xca, 0x27, 0x04,
  0xf5, 0x1a, 0x47, 0x3e, 0x44, 0x18, 0x08, 0xff, 0xda, 0xde, 0xf7, 0x15,
  0xce, 0xc0, 0x29, 0xba, 0x2b, 0xd8, 0xf4, 0xca, 0x0b, 0x20, 0xc7, 0x19,
  0x15, 0xfd, 0x11, 0xbe, 0xe0, 0x7f, 0xd0, 0x1d, 0xc2, 0xfc, 0xe4, 0x6e,
  0xfb, 0x06, 0xee, 0x20, 0xfe, 0x37, 0x50, 0x3f, 0xcd, 0x0d, 0xc6, 0xf4,
  0x12, 0xb3, 0xd9, 0x1c, 0x00, 0xed, 0x2e, 0xf4, 0x1a, 0x26, 0xc6, 0x32,
  0x0a, 0xad, 0x3b, 0x08, 0xb8, 0x0e, 0xdd, 0x17, 0x08, 0x28, 0x28, 0x1c,
  0xfb, 0x1a, 0xd4, 0xff, 0xed, 0x30, 0x17, 0x12, 0xf4, 0xd1, 0x18, 0xbe,
  0x47, 0x13, 0x03, 0xfb, 0x38, 0xec, 0x23, 0x18, 0xd8, 0xc6, 0x3b, 0x1b,
  0x4c, 0xf3, 0x2c, 0x16, 0x2f, 0xf7, 0x0f, 0xf2, 0xd1, 0xc2, 0x16, 0x27,
  0x1d, 0xc3, 0x0f, 0xe3, 0x30, 0xc6, 0x02, 0xe6, 0xdd, 0xab, 0x12, 0x34,
  0x06, 0x1f, 0xd7, 0xe6, 0x0e, 0x19, 0x07, 0x0e, 0xf5, 0xb5, 0xf7, 0xe7,
  0x20, 0x07, 0x19, 0xe0, 0x1c, 0x22, 0x0e, 0x18, 0xbf, 0xe6, 0xff, 0x3b,
  0x2a, 0xef, 0x03, 0xca, 0x2a, 0xe3, 0xf5, 0x44, 0x07, 0xe8, 0xe6, 0xfd,
  0xdb, 0x1b, 0x13, 0xdc, 0xd3, 0x18, 0x0d, 0xee, 0xd4, 0x46, 0xc8, 0xfd,
  0x46, 0x1d, 0x34, 0xe7, 0x0a, 0x0e, 0xdc, 0x41, 0xdf, 0xec, 0x01, 0x23,
  0x0e, 0x2e, 0x19, 0x33, 0x3e, 0x15, 0xe8, 0x01, 0x3e, 0xec, 0x2e, 0xee,
  0x07, 0x1e, 0xea, 0xc7, 0xfc, 0x19, 0x29, 0x13, 0x3d, 0x17, 0xee, 0x02,
  0xf2, 0x21, 0x20, 0xdd, 0xf3, 0xe4, 0x4f, 0x06, 0x05, 0xfc, 0xe5, 0x2c,
  0x18, 0x07, 0xe4, 0xfb, 0xdd, 0xdc, 0xe7, 0xea, 0xd5, 0x1a, 0xfe, 0x06,
  0xfe, 0xf0, 0xfa, 0xf6, 0x31, 0x2f, 0xef, 0x0d, 0x17, 0x10, 0xe3, 0x37,
  0x33, 0xba, 0x44, 0xff, 0xec, 0xf7, 0xf7, 0x02, 0x2a, 0xe9, 0x1f, 0xe0,
  0x10, 0xcc, 0x03, 0x15, 0xe1, 0x40, 0x38, 0x15, 0x3f, 0x19, 0x03, 0x07,
  0x16, 0x46, 0xf1, 0xd8, 0xec, 0xdd, 0xe5, 0xb7, 0xda, 0xf5, 0x09, 0x08,
  0x06, 0xd4, 0xca, 0x26, 0xc4, 0xf1, 0x05, 0xe2, 0x48, 0xf3, 0x2d, 0x42,
  0xef, 0xcd, 0x03, 0xf2, 0xd5, 0xfd, 0x0a, 0xfb, 0x0f, 0x1f, 0x1d, 0xeb,
  0xfc, 0xde, 0x28, 0xb8, 0xce, 0xe6, 0x00, 0xd9, 0x1b, 0x25, 0x1d, 0xf8,
  0xc7, 0xe6, 0x50, 0x17, 0x01, 0x1e, 0xe8, 0xdb, 0x44, 0x53, 0x21, 0xd0,
  0x2a, 0x28, 0x1a, 0x2f, 0x29, 0xe7, 0xc1, 0xe4, 0xfc, 0x2c, 0x0d, 0xf0,
  0xe2, 0xe0, 0xea, 0x4b, 0x43, 0x47, 0xd7, 0x09, 0x10, 0x0a, 0x12, 0x34,
  0xe9, 0x3b, 0x08, 0x0f, 0x3f, 0xf8, 0x07, 0xe9, 0x0e, 0x4c, 0xf9, 0x18,
  0xc8, 0xf7, 0xd2, 0x1c, 0x02, 0x3e, 0xed, 0xfd, 0xdd, 0xeb, 0x11, 0xf9,
  0xf1, 0xe3, 0x0b, 0xfd, 0x38, 0x2e, 0xe6, 0xd6, 0x05, 0xf9, 0xee, 0x2e,
  0xf4, 0x1a, 0xf3, 0x08, 0xbf, 0x04, 0xf7, 0xb6, 0xfb, 0xe4, 0xeb, 0xcd,
  0xf3, 0xce, 0xbf, 0xbb, 0x01, 0xd8, 0x0a, 0x0a, 0xd5, 0xda, 0xde, 0xc3,
  0x23, 0xf8, 0xdf, 0xe6, 0xd6, 0xf4, 0x02, 0x34, 0x9a, 0xd5, 0x27, 0x18,
  0x11, 0x3f, 0xc4, 0xd1, 0xfc, 0x1d, 0xe6, 0x2f, 0xda, 0xf7, 0xea, 0xe4,
  0xe5, 0xd6, 0x26, 0xe5, 0xdd, 0x00, 0xfc, 0xfd, 0xda, 0x1c, 0x0e, 0xff,
  0x35, 0xe0, 0xe3, 0xcd, 0x0c, 0xa9, 0xe0, 0x54, 0xc1, 0xb1, 0xea, 0xac,
  0xde, 0xcd, 0xf2, 0xba, 0x2c, 0xe6, 0x2f, 0x0b, 0xf2, 0x21, 0xf0, 0xf7,
  0x31, 0xef, 0x1c, 0xdd, 0xdf, 0x34, 0x40, 0xfc, 0x34, 0x30, 0xc1, 0xfe,
  0xef, 0x03, 0x17, 0x1f, 0xd1, 0x2a, 0x1b, 0xd3, 0xd1, 0xcf, 0xe2, 0xe9,
  0x5d, 0x1b, 0x3e, 0x0b, 0xd8, 0x26, 0x33, 0x1e, 0xea, 0x26, 0xd6, 0x3c,
  0x2f, 0xf8, 0x03, 0x18, 0xe8, 0x02, 0x27, 0x0b, 0x0b, 0xe4, 0x11, 0x21,
  0x1d, 0x43, 0x49, 0xa8, 0x59, 0x1d, 0xe5, 0x2f, 0xf3, 0xaf, 0x25, 0x0d,
  0x32, 0x2d, 0xec, 0xc7, 0xf9, 0x2f, 0xec, 0xdc, 0x15, 0xdb, 0xe1, 0x3b,
  0xd0, 0x42, 0x39, 0xe5, 0xfd, 0xd2, 0xf5, 0xf2, 0xda, 0xc3, 0xf3, 0xba,
  0xf0, 0x2f, 0x43, 0xd5, 0x06, 0x10, 0x4d, 0x52, 0x1c, 0xfa, 0x05, 0x0c,
  0x1b, 0x37, 0x30, 0x0c, 0x10, 0x07, 0xe0, 0xc2, 0xde, 0xe8, 0xe6, 0x1e,
  0x29, 0xd0, 0xd7, 0xfd, 0xe2, 0x0d, 0x3b, 0xd4, 0xea, 0xbb, 0xd2, 0x02,
  0x39, 0x13, 0xec, 0xb0, 0xf7, 0xfc, 0x11, 0xcd, 0xed, 0xe5, 0xc3, 0x3c,
  0x0e, 0xcd, 0x06, 0x00, 0xdd, 0x2e, 0x0a, 0x40, 0x18, 0x0a, 0x09, 0x0e,
  0x48, 0xef, 0x25, 0x11, 0xcf, 0xf6, 0x2e, 0xee, 0x01, 0xeb, 0x13, 0xe6,
  0xe0, 0xfc, 0xfc, 0x05, 0xda, 0x3a, 0xea, 0x0e, 0x06, 0x09, 0xfc, 0xd1,
  0xc2, 0xda, 0x3d, 0x5d, 0x26, 0xdb, 0xa0, 0xbe, 0xeb, 0xfc, 0x06, 0x41,
  0x2c, 0xe2, 0x48, 0x19, 0xef, 0x2c, 0xe7, 0xa2, 0x0c, 0xf3, 0x63, 0xdc,
  0x3a, 0xc2, 0x1c, 0xfa, 0x0c, 0xff, 0x58, 0xf6, 0x18, 0x0b, 0x0b, 0x16,
  0x22, 0xd0, 0xea, 0xda, 0xf2, 0xed, 0xd6, 0xcc, 0x16, 0x28, 0x40, 0x20,
  0x0f, 0xb6, 0xd8, 0x0c, 0x22, 0xf0, 0xf3, 0xbd, 0xf8, 0x12, 0x0d, 0xdc,
  0x0e, 0x07, 0xf9, 0x18, 0x1a, 0x1e, 0xd5, 0xde, 0x3a, 0xe9, 0x1a, 0x12,
  0xe7, 0xec, 0x04, 0xf6, 0x1c, 0xf4, 0xd9, 0xe8, 0x04, 0xf8, 0x04, 0x15,
  0x1d, 0xd6, 0x01, 0xd0, 0x1b, 0xdc, 0x05, 0xf1, 0xcd, 0x20, 0x05, 0xdd,
  0x06, 0xf9, 0x3a, 0xd1, 0x31, 0x09, 0xfb, 0x13, 0xda, 0xfa, 0xe8, 0xf2,
  0x27, 0x2c, 0x09, 0xfe, 0x48, 0xda, 0x1f, 0x17, 0xa9, 0xf2, 0x1e, 0x15,
  0x3f, 0x11, 0x50, 0xd4, 0xc1, 0x46, 0xcd, 0x3c, 0xff, 0xd4, 0xf9, 0x18,
  0xd2, 0x1e, 0x38, 0xdc, 0x20, 0x5b, 0xe3, 0xdd, 0x14, 0x06, 0xf0, 0x31,
  0xec, 0xee, 0x3a, 0xf8, 0x11, 0xe4, 0x17, 0x1a, 0xcc, 0xfa, 0xe3, 0xe7,
  0x15, 0x05, 0x30, 0xe1, 0x56, 0x18, 0xde, 0x53, 0xf2, 0xbf, 0xe9, 0xfe,
  0x1f, 0x50, 0xd3, 0xe5, 0xa7, 0xfd, 0x07, 0x03, 0xd7, 0xeb, 0xf7, 0xff,
  0x08, 0xd2, 0xd4, 0xf6, 0x09, 0xf4, 0xe4, 0x0f, 0xff, 0xfc, 0x0a, 0xd6,
  0xd1, 0x03, 0x05, 0xdd, 0x15, 0x27, 0x0f, 0xca, 0x1d, 0xf3, 0xdd, 0xe1,
  0x34, 0xe2, 0xe4, 0xbf, 0x0e, 0x40, 0x09, 0xf5, 0x42, 0x08, 0xd5, 0xef,
  0x35, 0xfd, 0x1f, 0x2a, 0x0c, 0xdd, 0x27, 0xb0, 0x3a, 0x10, 0xd1, 0xb9,
  0x19, 0x0b, 0xf6, 0x05, 0x05, 0x86, 0x2a, 0x0d, 0x2e, 0xfb, 0x59, 0xf6,
  0xe8, 0xe8, 0x35, 0xf1, 0x40, 0xf2, 0xe1, 0xfa, 0x1d, 0xe4, 0xf5, 0xe3,
  0xcd, 0x11, 0x1a, 0xc9, 0x04, 0x0b, 0x0c, 0x0f, 0x3a, 0x07, 0xcb, 0xac,
  0xac, 0x1a, 0x14, 0x29, 0x31, 0xc8, 0xfa, 0x01, 0xf1, 0x3a, 0xec, 0x32,
  0xaf, 0xd6, 0x1f, 0xec, 0x01, 0xde, 0x02, 0xb9, 0xd5, 0xe4, 0x00, 0x2a,
  0x1a, 0x3b, 0xed, 0x0f, 0xe2, 0x43, 0xef, 0x29, 0x1a, 0xf1, 0xf7, 0x39,
  0xf2, 0x03, 0x2b, 0x02, 0xe8, 0x16, 0xc4, 0xc5, 0xd2, 0x23, 0x21, 0xf7,
  0xc2, 0xfe, 0xfb, 0xfe, 0x22, 0xc6, 0xa7, 0x2c, 0xf1, 0xfe, 0x09, 0xde,
  0xf9, 0x18, 0xfd, 0xf4, 0x37, 0xf9, 0x07, 0x0c, 0xea, 0x10, 0x0f, 0xc8,
  0xc1, 0xf4, 0xd3, 0xef, 0xed, 0xce, 0x07, 0x25, 0x07, 0xeb, 0x25, 0xd7,
  0x23, 0xff, 0xb6, 0x16, 0x09, 0x1a, 0xf8, 0xf6, 0xc9, 0x37, 0x27, 0x31,
  0x13, 0xcd, 0x11, 0xb9, 0xb4, 0xfb, 0xd4, 0x2a, 0xe2, 0x24, 0x59, 0x27,
  0x17, 0xcb, 0xdf, 0xfa, 0xcf, 0x1c, 0x01, 0x07, 0xf9, 0xdf, 0xef, 0x2b,
  0xd2, 0xe2, 0xfc, 0x02, 0x73, 0x2f, 0x17, 0xe9, 0x2d, 0x0e, 0x1b, 0xda,
  0x27, 0x32, 0xdf, 0xf5, 0x3a, 0xc9, 0x06, 0xdc, 0xf7, 0x16, 0x15, 0x18,
  0x10, 0x13, 0x21, 0x02, 0x26, 0xb3, 0xba, 0xcb, 0x27, 0x23, 0x51, 0xe7,
  0xea, 0xf9, 0x40, 0xc9, 0xfd, 0xb4, 0x0a, 0x42, 0x24, 0xc7, 0xf3, 0x05,
  0x17, 0x07, 0x02, 0x0d, 0xff, 0x17, 0xe3, 0x18, 0xe6, 0xc7, 0x18, 0x51,
  0xd3, 0x2f, 0x05, 0x10, 0xe2, 0x4c, 0xf9, 0xdd, 0xdd, 0x03, 0xc7, 0x09,
  0x36, 0xe5, 0xdb, 0x23, 0xb3, 0x28, 0xf2, 0xf8, 0x0d, 0x24, 0xf4, 0xd1,
  0x27, 0x23, 0x2b, 0xd7, 0x5c, 0xbd, 0xfc, 0x18, 0xfe, 0x20, 0x00, 0xbd,
  0x15, 0xf8, 0xee, 0x14, 0x4c, 0x3a, 0x34, 0xf2, 0xbe, 0x0f, 0xcc, 0x04,
  0xe8, 0xc9, 0x3c, 0xd6, 0xf0, 0xd1, 0x09, 0x2a, 0x04, 0xf6, 0x02, 0x33,
  0x02, 0x1a, 0xe7, 0x1e, 0xe2, 0x12, 0x1c, 0xde, 0xf2, 0xf5, 0x16, 0x06,
  0x43, 0xd7, 0x17, 0xee, 0x09, 0x30, 0x08, 0x22, 0xd3, 0x17, 0xf7, 0x1c,
  0xf5, 0xda, 0xfa, 0x33, 0x29, 0xf7, 0x08, 0xfb, 0x18, 0x33, 0x2c, 0x3d,
  0xec, 0xd3, 0x09, 0x1f, 0x2d, 0x0a, 0xf3, 0xf1, 0x06, 0x20, 0x1f, 0xdf,
  0x26, 0x3d, 0xfe, 0x00, 0x47, 0xf6, 0x50, 0xdd, 0xdb, 0xdf, 0x2c, 0xcf,
  0x05, 0xf4, 0xf8, 0xe3, 0x17, 0x05, 0x1c, 0xf6, 0x0a, 0xfd, 0xf4, 0xe4,
  0xf6, 0xb9, 0xdf, 0x3a, 0x19, 0x1c, 0x31, 0xd2, 0x0c, 0xec, 0x04, 0xf4,
  0x17, 0x3b, 0x16, 0x1d, 0xbb, 0xb2, 0x49, 0x2f, 0x4b, 0xd9, 0xdb, 0xde,
  0x0c, 0xdf, 0x3f, 0x11, 0x17, 0x39, 0xec, 0xf4, 0xfb, 0x02, 0xe8, 0x0b,
  0xfc, 0xe5, 0xea, 0xe4, 0x09, 0xd9, 0x19, 0xd1, 0x0d, 0x04, 0xee, 0xd6,
  0xcc, 0xfb, 0x02, 0x25, 0x40, 0x32, 0xfe, 0xe5, 0x57, 0x13, 0x06, 0x31,
  0xd3, 0x14, 0x0d, 0x26, 0x15, 0xce, 0xd0, 0xe9, 0x15, 0x1e, 0xf1, 0x48,
  0x0a, 0x13, 0xe3, 0x23, 0xe1, 0x26, 0x0a, 0x0f, 0xca, 0xdc, 0xba, 0xf5,
  0xd9, 0x08, 0x26, 0xdb, 0xfc, 0x1d, 0x0b, 0xb1, 0x01, 0x0c, 0xe7, 0xc6,
  0x27, 0xef, 0xc9, 0xc4, 0xe2, 0xbb, 0xa4, 0xe1, 0xd5, 0xf3, 0xd3, 0x22,
  0xdd, 0x3a, 0x42, 0xc1, 0xba, 0xeb, 0xf4, 0x1a, 0xd5, 0xff, 0x3a, 0x02,
  0xbd, 0x10, 0x0d, 0xde, 0xe7, 0xcd, 0xb7, 0x16, 0xff, 0xb9, 0xce, 0xe3,
  0xd9, 0xe6, 0xe5, 0xfb, 0x07, 0xdc, 0x0f, 0x3d, 0x0c, 0x24, 0x4e, 0x06,
  0x2f, 0x39, 0x2a, 0xf0, 0x47, 0x04, 0xda, 0x0f, 0x16, 0xba, 0xe1, 0xb0,
  0x0e, 0x2b, 0x3a, 0x13, 0xbc, 0x36, 0x0c, 0xfc, 0x76, 0x22, 0x5d, 0x1f,
  0xd7, 0x04, 0x05, 0xec, 0xc7, 0xd0, 0xf3, 0x15, 0xfa, 0xd9, 0xe1, 0xbc,
  0x04, 0x12, 0x2a, 0xdd, 0x1e, 0xd8, 0xdb, 0x19, 0x02, 0xf3, 0x4c, 0xb5,
  0x26, 0xeb, 0x40, 0x1e, 0x1e, 0xe0, 0x0a, 0xba, 0x0c, 0x08, 0xdc, 0x02,
  0xf8, 0x03, 0x4c, 0x23, 0xd9, 0x0d, 0xf7, 0xea, 0x10, 0xe4, 0x07, 0x17,
  0xda, 0x07, 0x38, 0xf4, 0x0c, 0x03, 0x17, 0x17, 0x11, 0x1c, 0xfa, 0xd7,
  0xab, 0xef, 0x17, 0x2f, 0x13, 0xf3, 0xb9, 0xe8, 0xff, 0x0d, 0x0d, 0x59,
  0xe1, 0x4f, 0x13, 0x12, 0xf7, 0x54, 0xdb, 0xfd, 0x07, 0xc9, 0xf8, 0x3d,
  0x13, 0xe4, 0x19, 0xf9, 0xc0, 0x23, 0x0b, 0x17, 0xc5, 0xd4, 0x1e, 0xd7,
  0x36, 0x30, 0x4a, 0xe6, 0xfd, 0x0e, 0x17, 0x1f, 0xfc, 0x20, 0x31, 0xcf,
  0x02, 0x1a, 0xcc, 0x0a, 0x35, 0x52, 0x0c, 0x35, 0xbc, 0x22, 0x01, 0x35,
  0x13, 0xe4, 0x3f, 0xe6, 0xd3, 0xf9, 0xcb, 0xfe, 0xfa, 0xff, 0x2b, 0x15,
  0xe8, 0xf9, 0xe8, 0xd4, 0xfa, 0x21, 0x03, 0x40, 0xcc, 0x0f, 0xcb, 0x01,
  0xfb, 0xea, 0x0c, 0x00, 0x27, 0x02, 0xe5, 0xe1, 0x0f, 0xda, 0xf9, 0xe3,
  0x1e, 0xc6, 0x20, 0x0f, 0x02, 0x01, 0xd1, 0x0d, 0x12, 0xe8, 0xc4, 0x0f,
  0x11, 0x10, 0x21, 0xee, 0x14, 0xd4, 0xfc, 0x12, 0x0f, 0x2b, 0xfb, 0x06,
  0x0d, 0xde, 0x02, 0x02, 0x0d, 0xda, 0x00, 0x37, 0xe9, 0x0c, 0xe9, 0xe5,
  0xe5, 0x1b, 0xd8, 0xb4, 0x00, 0xef, 0x29, 0xd2, 0xc1, 0xc6, 0xcf, 0xff,
  0xb7, 0x0c, 0xc5, 0xf0, 0x05, 0x5d, 0x0a, 0xef, 0xed, 0xf8, 0xf3, 0x02,
  0xd2, 0x33, 0x19, 0x25, 0xc8, 0xf7, 0x26, 0x00, 0x37, 0x00, 0xd8, 0xd2,
  0x0a, 0xc3, 0x26, 0x42, 0xe9, 0x31, 0xe3, 0x28, 0x26, 0x1f, 0x12, 0x28,
  0x16, 0xe8, 0x33, 0xd5, 0x15, 0xf7, 0x07, 0x44, 0x12, 0x43, 0xe3, 0xff,
  0xf8, 0xf9, 0x3d, 0xf3, 0x18, 0xf4, 0xf6, 0x0b, 0xbf, 0xfc, 0x11, 0xee,
  0xe6, 0xe2, 0xf0, 0xc4, 0x25, 0xd3, 0xdf, 0xf2, 0x11, 0xdd, 0xd5, 0xca,
  0x24, 0x30, 0xfc, 0x2e, 0xf1, 0x40, 0xd3, 0xf7, 0x0f, 0xf9, 0xfc, 0x0a,
  0x11, 0x21, 0xf4, 0xf1, 0x35, 0x02, 0x13, 0x37, 0x14, 0x28, 0xfa, 0x4c,
  0xe2, 0xe9, 0x1d, 0x01, 0xec, 0x08, 0x07, 0x15, 0xcc, 0xe8, 0x14, 0xf1,
  0x45, 0xfc, 0xeb, 0xba, 0x28, 0xf9, 0x08, 0xec, 0x01, 0xeb, 0x2b, 0x04,
  0x2d, 0x01, 0x2a, 0xfd, 0xf9, 0xde, 0xfa, 0xf5, 0xcd, 0xf2, 0xf7, 0x4b,
  0xd8, 0x1b, 0x0d, 0xad, 0x1a, 0xf4, 0x2b, 0x44, 0x32, 0xd7, 0x3f, 0x4e,
  0xf3, 0xb4, 0xfc, 0xea, 0x01, 0xed, 0x08, 0x16, 0x17, 0xfe, 0x1f, 0x04,
  0x2b, 0x1b, 0xf3, 0xef, 0xfc, 0x0e, 0x21, 0x35, 0x08, 0xc8, 0xdc, 0x25,
  0x17, 0xfb, 0xe4, 0xd8, 0x25, 0xf0, 0xf3, 0x2c, 0x16, 0xe9, 0x01, 0x3d,
  0x0a, 0x28, 0xd0, 0xe5, 0xe8, 0xf9, 0xff, 0xdf, 0xd0, 0xf4, 0x23, 0x00,
  0xf0, 0xd1, 0xe3, 0x08, 0xea, 0x2d, 0x0e, 0x08, 0xd3, 0x0e, 0xda, 0xdc,
  0x40, 0xe6, 0x3b, 0x04, 0x44, 0x0f, 0x19, 0xed, 0xcc, 0xe8, 0xf8, 0xd7,
  0x44, 0x39, 0xf7, 0xef, 0xd1, 0xf9, 0x09, 0x09, 0x03, 0xfd, 0x47, 0xe9,
  0x30, 0x12, 0xe2, 0xe6, 0x41, 0x21, 0x2f, 0xe9, 0x04, 0x0e, 0xf7, 0xf7,
  0x1e, 0x00, 0x1f, 0x09, 0x07, 0xdf, 0xc2, 0xcf, 0xdc, 0x3a, 0x3f, 0x1d,
  0x1a, 0x36, 0x0b, 0x36, 0xcb, 0x27, 0xd1, 0x04, 0x15, 0x48, 0xfc, 0x0a,
  0xe8, 0xee, 0x20, 0x0d, 0x09, 0x4a, 0xfb, 0xc0, 0x45, 0x28, 0x4c, 0x12,
  0x03, 0xf4, 0x3b, 0x0d, 0x0b, 0x16, 0xdf, 0xfd, 0x32, 0x47, 0xc3, 0xeb,
  0xca, 0x1d, 0xde, 0xf2, 0x24, 0x1f, 0xc5, 0x07, 0xef, 0x26, 0xab, 0xc3,
  0xef, 0x25, 0x09, 0x59, 0xc6, 0xed, 0xd3, 0x31, 0x00, 0x0d, 0x02, 0x05,
  0xf0, 0x05, 0xce, 0xf8, 0x15, 0xf5, 0x08, 0x29, 0xd9, 0x24, 0x05, 0x25,
  0xb0, 0x17, 0x1f, 0x1c, 0x23, 0xf7, 0x04, 0xcd, 0xfb, 0x20, 0x31, 0x26,
  0xeb, 0xce, 0x25, 0x16, 0xe3, 0x09, 0xe5, 0xd6, 0x0e, 0x1a, 0xf7, 0x0d,
  0xea, 0xf6, 0x24, 0xe5, 0x5a, 0xf8, 0x17, 0x12, 0xb8, 0xd2, 0x1e, 0x1d,
  0x26, 0xf8, 0x3a, 0xd5, 0xd9, 0x50, 0x00, 0x1b, 0x10, 0xa8, 0xe4, 0x56,
  0xf3, 0x30, 0xfd, 0xd9, 0xe3, 0x61, 0x1a, 0x0c, 0x19, 0x1f, 0x11, 0xde,
  0x0b, 0x0e, 0xe1, 0x2b, 0x09, 0xe7, 0xa8, 0x2a, 0x18, 0x15, 0x1e, 0xde,
  0xeb, 0x19, 0xfe, 0x14, 0x2b, 0xdc, 0xf2, 0xf4, 0xd4, 0x3d, 0x0a, 0x4c,
  0xdf, 0xe5, 0xe6, 0x0d, 0x22, 0xff, 0xda, 0x20, 0x0e, 0x06, 0xd6, 0xee,
  0x0f, 0x1e, 0xf2, 0x0e, 0x40, 0xf7, 0xc6, 0xf0, 0x16, 0xc7, 0xe4, 0xe9,
  0x2e, 0xf1, 0xc4, 0xb4, 0x1e, 0x03, 0x09, 0x13, 0xfc, 0x23, 0x07, 0x3e,
  0x23, 0x12, 0x3b, 0xd5, 0xf3, 0x10, 0x27, 0xfb, 0x09, 0xf2, 0x07, 0x0a,
  0xfb, 0x1a, 0x19, 0x0b, 0x0b, 0x31, 0xd6, 0xe9, 0x2a, 0x22, 0xfc, 0xcc,
  0x3f, 0xfa, 0xf0, 0xe6, 0x40, 0xe6, 0x21, 0x17, 0x15, 0x22, 0xf9, 0xe1,
  0xb1, 0x01, 0xef, 0xce, 0x05, 0xf3, 0x04, 0x10, 0x0c, 0xf3, 0xdf, 0xe3,
  0xd6, 0xf2, 0xb4, 0x4b, 0x29, 0x2d, 0x1b, 0x0e, 0x03, 0x2d, 0x0d, 0x03,
  0xc7, 0xf3, 0xd2, 0x26, 0xa1, 0x04, 0x01, 0xed, 0xcc, 0xf3, 0xe0, 0xfb,
  0xf5, 0x39, 0xba, 0xc9, 0xf9, 0x26, 0xfc, 0x3e, 0x1a, 0xf2, 0xe3, 0x02,
  0xc1, 0xdb, 0x11, 0x0f, 0xd7, 0x10, 0xc5, 0xdd, 0xf3, 0x10, 0xf8, 0xd0,
  0xe8, 0xe1, 0xe9, 0x01, 0xf8, 0xff, 0xc4, 0xca, 0xf0, 0x24, 0x06, 0x17,
  0xf1, 0xf6, 0xf0, 0x37, 0xcd, 0xee, 0x36, 0x46, 0xfe, 0x17, 0xe7, 0xd4,
  0x11, 0xe7, 0xe8, 0x33, 0xfc, 0x2e, 0x07, 0xea, 0xca, 0x11, 0x07, 0x12,
  0x20, 0x12, 0xdd, 0x12, 0xe7, 0xed, 0xfa, 0xbc, 0x05, 0xfc, 0x27, 0x08,
  0xae, 0x17, 0xd9, 0xbd, 0x49, 0x2f, 0x1a, 0x34, 0xf8, 0xf6, 0x32, 0x12,
  0xf8, 0xcf, 0xdb, 0x3b, 0x10, 0x22, 0x12, 0x57, 0xdf, 0xe0, 0xf9, 0xdd,
  0xfe, 0x00, 0x21, 0x0d, 0x14, 0xf0, 0xf8, 0xd7, 0x04, 0xc8, 0x15, 0xbd,
  0x1d, 0x00, 0x38, 0x29, 0x14, 0xda, 0xf0, 0xff, 0x05, 0xd4, 0x11, 0x27,
  0x0d, 0xc1, 0xce, 0x2c, 0x2c, 0xe0, 0xf7, 0x20, 0xe6, 0xea, 0xdf, 0xcc,
  0xc8, 0xe6, 0x0f, 0xd9, 0x39, 0xb4, 0xc3, 0xc0, 0xf8, 0x43, 0x16, 0x24,
  0xdc, 0xeb, 0x0b, 0x27, 0xf8, 0x03, 0xcf, 0x0a, 0x11, 0x2b, 0xc1, 0xd0,
  0x02, 0x0d, 0x13, 0x12, 0x18, 0x08, 0x0b, 0xee, 0xd6, 0xd8, 0x01, 0xd6,
  0xd0, 0xfc, 0x17, 0x40, 0x15, 0xf7, 0xcd, 0x0b, 0x20, 0xe6, 0x49, 0xe8,
  0xec, 0xce, 0xf7, 0x24, 0xf3, 0x15, 0xc8, 0x26, 0xed, 0xd2, 0x0d, 0x11,
  0x04, 0x12, 0xf5, 0x1e, 0x4e, 0x3d, 0x1b, 0xdc, 0xf9, 0xeb, 0xee, 0xf4,
  0x26, 0x3d, 0x0d, 0xef, 0xce, 0x36, 0x40, 0x11, 0xeb, 0x03, 0x0d, 0x25,
  0x3b, 0x51, 0x03, 0x5f, 0xf9, 0x06, 0xee, 0xe2, 0xe5, 0x0a, 0xf8, 0xd6,
  0xe5, 0x28, 0xfa, 0x17, 0x19, 0xe6, 0x16, 0x18, 0xf3, 0xbb, 0xfa, 0x5c,
  0xfe, 0xe6, 0xd7, 0x2f, 0x19, 0xf3, 0xe9, 0x11, 0x14, 0xe0, 0x18, 0xf7,
  0x43, 0xe0, 0x08, 0x0b, 0x02, 0x03, 0xcc, 0xd3, 0x2c, 0xdf, 0x01, 0x14,
  0x30, 0x28, 0x20, 0x3b, 0x17, 0x42, 0x50, 0x11, 0x23, 0xfa, 0x02, 0x20,
  0x09, 0x29, 0xf6, 0xea, 0x45, 0xec, 0x2e, 0x1b, 0xd7, 0xff, 0xf5, 0x07,
  0x22, 0xe4, 0x43, 0xfc, 0x0f, 0xe5, 0x01, 0xf0, 0xc2, 0xd2, 0x13, 0xd8,
  0x32, 0xe8, 0xe9, 0xf8, 0xec, 0x30, 0x23, 0x38, 0x1c, 0x28, 0x23, 0xf5,
  0x47, 0x03, 0xd4, 0xe0, 0x3a, 0x2b, 0x0c, 0xc8, 0xc0, 0x41, 0x1b, 0x04,
  0x01, 0x19, 0xd9, 0xe3, 0xce, 0xef, 0xd3, 0xff, 0x34, 0x5e, 0xfb, 0x1e,
  0x26, 0x3d, 0x01, 0x2e, 0x07, 0xe4, 0x21, 0x25, 0xff, 0xe0, 0x18, 0x2e,
  0xe6, 0x4c, 0xe0, 0x55, 0xe6, 0xc8, 0xea, 0x20, 0xdd, 0x32, 0x16, 0xe3,
  0x35, 0xe6, 0xc7, 0xf7, 0x0a, 0x38, 0x3e, 0x13, 0xde, 0xc7, 0xf7, 0xeb,
  0x20, 0x1a, 0x12, 0x06, 0x27, 0xff, 0x22, 0x37, 0xe8, 0xe6, 0xc6, 0xcd,
  0xca, 0xc2, 0x08, 0x01, 0xe4, 0xf0, 0xe8, 0xfc, 0xdb, 0x1d, 0xd5, 0x17,
  0x02, 0xd7, 0x0b, 0x44, 0xd9, 0xd3, 0xec, 0xe8, 0x14, 0x1b, 0x06, 0xab,
  0xc9, 0x15, 0x35, 0x19, 0xde, 0x08, 0x46, 0x54, 0xce, 0x09, 0xb6, 0xd6,
  0x0f, 0x0b, 0x28, 0x17, 0xea, 0xed, 0x2d, 0xe6, 0x11, 0xee, 0xc8, 0xd2,
  0x45, 0x0a, 0xf9, 0xfd, 0x15, 0xb0, 0xfd, 0x19, 0xec, 0x22, 0x0c, 0xaa,
  0x12, 0x07, 0x1b, 0x3c, 0x00, 0x6e, 0xf2, 0x2a, 0x27, 0xf5, 0x1a, 0x17,
  0xcf, 0xe5, 0x43, 0x1f, 0xf8, 0xff, 0x0a, 0x02, 0x0b, 0xf4, 0xdb, 0x37,
  0xc1, 0x05, 0xe9, 0x01, 0x04, 0xe0, 0x1c, 0xf6, 0xec, 0xf1, 0x28, 0x52,
  0xe5, 0x15, 0xd4, 0xdc, 0xce, 0x12, 0xe3, 0x0b, 0xdb, 0x1d, 0xe7, 0x44,
  0x36, 0xf9, 0x13, 0xcd, 0xe2, 0x1f, 0x15, 0x1d, 0xed, 0xcd, 0xda, 0xe2,
  0x36, 0xdb, 0xea, 0xfb, 0x4e, 0x42, 0x04, 0x02, 0xfe, 0x1a, 0x21, 0xf9,
  0x3f, 0xf5, 0x0c, 0x0e, 0x36, 0xc9, 0xf4, 0xdc, 0x06, 0xeb, 0xeb, 0xd3,
  0xd4, 0x01, 0x33, 0xe2, 0xd6, 0x29, 0xf1, 0x02, 0x2f, 0x01, 0xb6, 0xfe,
  0x42, 0xb2, 0x1d, 0xf3, 0xed, 0x03, 0x34, 0xfc, 0xdb, 0xd5, 0x22, 0x46,
  0xf1, 0xe6, 0xb7, 0x1b, 0x33, 0x1c, 0xd9, 0xea, 0x31, 0x0e, 0x37, 0xce,
  0xec, 0x2a, 0xf5, 0xec, 0x31, 0xf0, 0xe7, 0x07, 0xbd, 0xf5, 0xe4, 0x05,
  0xed, 0x25, 0xca, 0x03, 0x24, 0x0c, 0xd9, 0x25, 0xf8, 0x35, 0x08, 0x09,
  0xdf, 0xdf, 0x18, 0xf0, 0xed, 0xe4, 0x1c, 0x0e, 0x21, 0x3b, 0x36, 0x11,
  0xff, 0x15, 0xf4, 0xe5, 0xfd, 0x1d, 0xcf, 0x29, 0xea, 0x06, 0x49, 0xc7,
  0x0e, 0x02, 0x2b, 0xd2, 0x08, 0xed, 0x20, 0xec, 0xff, 0x0c, 0xd2, 0xfd,
  0x45, 0xd8, 0xd6, 0x10, 0xe6, 0x0f, 0x20, 0xf5, 0x25, 0x02, 0x1a, 0xf5,
  0x25, 0xe5, 0x32, 0xee, 0xc2, 0x3a, 0xfa, 0xfb, 0x01, 0x08, 0xf8, 0xce,
  0x0a, 0x15, 0xe2, 0xe4, 0xe7, 0x1b, 0xf8, 0xed, 0xb9, 0x09, 0x01, 0xf8,
  0x05, 0x38, 0xcc, 0x1e, 0x21, 0xff, 0x02, 0x2f, 0x1d, 0xfd, 0xf4, 0x18,
  0x19, 0x0a, 0xf5, 0x01, 0xe3, 0x1d, 0xfd, 0x1d, 0xf5, 0xfa, 0x35, 0x27,
  0x04, 0x0f, 0xef, 0x2c, 0x12, 0x30, 0x42, 0x16, 0x24, 0x16, 0x26, 0x2d,
  0xf0, 0xeb, 0x01, 0xf1, 0xea, 0xec, 0x12, 0x17, 0x31, 0xe1, 0x0d, 0x2a,
  0xd5, 0x1e, 0xf9, 0x24, 0xe7, 0xef, 0x1f, 0x04, 0xec, 0x03, 0xea, 0x2f,
  0x1f, 0x03, 0xdb, 0xf9, 0xba, 0xc4, 0xff, 0x12, 0xc9, 0xd3, 0x21, 0x0e,
  0xee, 0xf4, 0x06, 0xc7, 0xd3, 0xcb, 0x14, 0x04, 0xee, 0xf3, 0x0f, 0xc7,
  0xe4, 0x20, 0xf3, 0xf4, 0xe9, 0xeb, 0x23, 0x0a, 0xe0, 0x46, 0xf6, 0xcf,
  0x34, 0xe5, 0xfc, 0x13, 0x24, 0x13, 0x2f, 0xd6, 0x09, 0x18, 0x19, 0xe7,
  0xe7, 0xf2, 0xff, 0xe6, 0xcb, 0xe7, 0x23, 0x2d, 0xf0, 0x11, 0xfb, 0xf7,
  0x0a, 0xf3, 0x19, 0x04, 0x03, 0x1e, 0x1e, 0x2b, 0x00, 0xea, 0xc8, 0xe2,
  0xb7, 0xea, 0x1f, 0x47, 0x2b, 0xce, 0x2d, 0x05, 0xe9, 0xd6, 0xe7, 0xf1,
  0x36, 0xd6, 0xd6, 0x0c, 0x4d, 0xf0, 0xe6, 0x1e, 0xfe, 0x27, 0xe1, 0xcd,
  0x11, 0xcc, 0x07, 0x22, 0x35, 0xe5, 0xd0, 0xb6, 0x2c, 0xd7, 0x19, 0x19,
  0x0d, 0xec, 0xd4, 0x19, 0x2c, 0xfb, 0xe8, 0xde, 0x06, 0xe6, 0x0a, 0xb0,
  0x10, 0xfd, 0xcd, 0xf5, 0x2d, 0x0b, 0xf7, 0xeb, 0x00, 0x01, 0x0d, 0xf2,
  0x0e, 0xdd, 0xec, 0x05, 0xe4, 0x1e, 0x17, 0x21, 0x28, 0x0b, 0x35, 0x0b,
  0x08, 0x2c, 0x02, 0xf3, 0xe0, 0x00, 0xf8, 0xd7, 0x23, 0x07, 0x23, 0xd0,
  0x11, 0x23, 0xf4, 0x18, 0xd7, 0xf4, 0xb6, 0x2c, 0x1a, 0xf0, 0x04, 0xfc,
  0xd9, 0xd7, 0xf8, 0x22, 0x09, 0x18, 0x1c, 0xf6, 0xef, 0x0f, 0xe2, 0xe0,
  0xed, 0x14, 0x45, 0xfd, 0x25, 0x47, 0x2f, 0x1b, 0xdb, 0x46, 0xf7, 0xf2,
  0xd8, 0xe6, 0xda, 0x04, 0x2a, 0x2e, 0x0c, 0xe0, 0xef, 0x13, 0x15, 0x10,
  0x05, 0x16, 0xff, 0xd1, 0x55, 0x3f, 0x2a, 0x22, 0xf1, 0xcf, 0x2b, 0x31,
  0x17, 0xc6, 0x05, 0xf1, 0x1e, 0xde, 0xed, 0x1d, 0x3c, 0x49, 0x1e, 0x29,
  0x94, 0xf8, 0x12, 0xee, 0x1a, 0x00, 0x10, 0x23, 0xe5, 0xce, 0xdb, 0x29,
  0x22, 0x0e, 0xf2, 0xf5, 0xf1, 0x19, 0x02, 0x06, 0xf3, 0xfa, 0x10, 0x0e,
  0x0b, 0xee, 0xff, 0xf0, 0xd3, 0x1e, 0x17, 0xe6, 0xe7, 0x16, 0xdf, 0xbe,
  0x33, 0xff, 0x23, 0xdf, 0x11, 0xd7, 0x00, 0x23, 0xba, 0xcf, 0xd8, 0x16,
  0x2b, 0x00, 0xcc, 0x1e, 0x02, 0xfa, 0xf2, 0xb7, 0x0d, 0xf4, 0x25, 0xe9,
  0x31, 0xbf, 0x05, 0x15, 0x08, 0x1e, 0x08, 0xc8, 0x0b, 0x0f, 0x17, 0x38,
  0x3e, 0x0e, 0x03, 0xe1, 0x05, 0x1f, 0x27, 0xf3, 0x03, 0x0c, 0x1b, 0xec,
  0x10, 0x2b, 0x02, 0x00, 0xf1, 0xed, 0x4a, 0x45, 0x07, 0xea, 0x20, 0xfb,
  0x12, 0x1a, 0xed, 0xf1, 0x35, 0x09, 0xcb, 0x00, 0xe8, 0x3b, 0xf5, 0xf1,
  0xc0, 0x08, 0xde, 0x33, 0x36, 0x46, 0xd4, 0xf8, 0x17, 0x55, 0x29, 0x29,
  0x2b, 0xed, 0x23, 0x28, 0x00, 0x0a, 0x1c, 0xe4, 0x25, 0x24, 0x22, 0xc6,
  0x46, 0xc9, 0x1d, 0x0a, 0x0a, 0xf6, 0xef, 0x10, 0xee, 0x49, 0xea, 0x16,
  0xfb, 0x2c, 0x0f, 0xff, 0x2f, 0x3d, 0x37, 0x21, 0x45, 0x17, 0xf0, 0x01,
  0xf9, 0x11, 0x21, 0x2b, 0xfc, 0x21, 0x06, 0x1f, 0x4b, 0x30, 0x14, 0xda,
  0xce, 0x10, 0x24, 0x4a, 0xe8, 0xf9, 0x13, 0xfe, 0xe4, 0x31, 0xd9, 0xd9,
  0xe5, 0xf9, 0x1c, 0x23, 0xce, 0x41, 0xfa, 0x1c, 0x27, 0x1e, 0xc3, 0x02,
  0xf6, 0x40, 0xff, 0xf0, 0x14, 0xe9, 0xe7, 0xe9, 0x21, 0x1d, 0x0d, 0xff,
  0x15, 0xfa, 0xf4, 0xbf, 0xfe, 0x37, 0xde, 0x2b, 0x0a, 0xe5, 0x0d, 0xfd,
  0xca, 0x05, 0x46, 0x19, 0x0e, 0xfb, 0xff, 0xff, 0x04, 0x00, 0x00, 0x00,
  0xc8, 0x00, 0x00, 0x00, 0xbe, 0xfa, 0xff, 0xff, 0x75, 0xf8, 0xff, 0xff,
  0xde, 0x0c, 0x00, 0x00, 0x33, 0xf0, 0xff, 0xff, 0x04, 0xfa, 0xff, 0xff,
  0xcd, 0x08, 0x00, 0x00, 0x4f, 0xf7, 0xff, 0xff, 0xec, 0x0d, 0x00, 0x00,
  0xf4, 0x17, 0x00, 0x00, 0xfe, 0xec, 0xff, 0xff, 0x42, 0x11, 0x00, 0x00,
  0x74, 0xfa, 0xff, 0xff, 0x3c, 0x0c, 0x00, 0x00, 0xec, 0xf3, 0xff, 0xff,
  0xec, 0x1a, 0x00, 0x00, 0x55, 0xf3, 0xff, 0xff, 0xb8, 0xfc, 0xff, 0xff,
  0x4f, 0xf7, 0xff, 0xff, 0x41, 0x03, 0x00, 0x00, 0xe6, 0x0d, 0x00, 0x00,
  0x59, 0x0d, 0x00, 0x00, 0x1d, 0x14, 0x00, 0x00, 0x08, 0x16, 0x00, 0x00,
  0x15, 0x18, 0x00, 0x00, 0xc5, 0x09, 0x00, 0x00, 0x5a, 0xf1, 0xff, 0xff,
  0x46, 0xfd, 0xff, 0xff, 0xf5, 0xee, 0xff, 0xff, 0x43, 0xee, 0xff, 0xff,
  0x9a, 0xec, 0xff, 0xff, 0xfd, 0x1c, 0x00, 0x00, 0xe7, 0xfa, 0xff, 0xff,
  0xb7, 0x0f, 0x00, 0x00, 0x9b, 0x18, 0x00, 0x00, 0x2c, 0xf6, 0xff, 0xff,
  0x31, 0x1f, 0x00, 0x00, 0xf8, 0xff, 0xff, 0xff, 0xab, 0x08, 0x00, 0x00,
  0x1b, 0xf9, 0xff, 0xff, 0xd7, 0x2f, 0x00, 0x00, 0xdd, 0xf4, 0xff, 0xff,
  0x0e, 0x1b, 0x00, 0x00, 0xa8, 0x21, 0x00, 0x00, 0x33, 0xf3, 0xff, 0xff,
  0xac, 0x1b, 0x00, 0x00, 0x13, 0x03, 0x00, 0x00, 0x6f, 0xf6, 0xff, 0xff,
  0x66, 0x06, 0x00, 0x00, 0x2c, 0x30, 0x00, 0x00, 0x35, 0xf1, 0xff, 0xff,
  0xe2, 0xfb, 0xff, 0xff, 0x04, 0x00, 0x00, 0x00, 0xee, 0x02, 0x00, 0x00,
  0x24, 0xdf, 0xdc, 0x1c, 0xdd, 0x3e, 0xe2, 0x14, 0xd1, 0x12, 0xda, 0x1b,
  0xc4, 0x64, 0xf3, 0xda, 0x0b, 0x48, 0x3c, 0x2c, 0xec, 0x43, 0x0e, 0xd7,
  0x1d, 0x27, 0x0d, 0xdf, 0x21, 0x12, 0xd3, 0x1a, 0xfc, 0x26, 0x41, 0xff,
  0xee, 0x42, 0xda, 0xba, 0xd4, 0xfb, 0x24, 0xf2, 0xdb, 0x43, 0x49, 0x12,
  0xc8, 0xe4, 0x44, 0x23, 0xab, 0x68, 0xe7, 0x09, 0x0c, 0xf7, 0xfc, 0x29,
  0x0c, 0x42, 0x14, 0x15, 0xeb, 0x09, 0x08, 0x42, 0xd9, 0xea, 0xf8, 0xee,
  0xdc, 0xd7, 0xd5, 0xff, 0x2d, 0x25, 0xfe, 0x15, 0x29, 0xfa, 0xed, 0x11,
  0x1a, 0xf6, 0xe6, 0xe5, 0x44, 0xf6, 0x0b, 0x2c, 0x01, 0x4d, 0x1f, 0x53,
  0x00, 0xdd, 0xe9, 0xed, 0x50, 0x16, 0xd2, 0xf7, 0x6c, 0xbc, 0x1a, 0xcf,
  0xfc, 0xf0, 0xec, 0x42, 0xbe, 0x0e, 0xea, 0x40, 0x46, 0x37, 0xb3, 0xe6,
  0xf0, 0x2a, 0xf2, 0xe0, 0x21, 0x5b, 0x1c, 0x31, 0x13, 0x3a, 0xff, 0x34,
  0xdd, 0xb6, 0x42, 0x0b, 0x06, 0x33, 0x24, 0x29, 0x0c, 0x03, 0xee, 0x22,
  0xc5, 0x0e, 0xf6, 0xe1, 0x1c, 0x12, 0x40, 0x42, 0xac, 0x39, 0x49, 0xf1,
  0x29, 0xc2, 0xa2, 0x09, 0xd7, 0x46, 0xd8, 0x03, 0x1e, 0x1b, 0x49, 0x7f,
  0xea, 0xe6, 0xb6, 0x17, 0x16, 0xad, 0x20, 0x4a, 0x52, 0x2a, 0x47, 0x38,
  0x14, 0x0e, 0x1b, 0xf2, 0x30, 0x1f, 0xf5, 0x2c, 0x5b, 0x06, 0x4a, 0xf1,
  0xcd, 0xf7, 0xea, 0xf9, 0x14, 0xd0, 0x0c, 0x48, 0xdf, 0xed, 0x12, 0x18,
  0x22, 0x0b, 0x0c, 0x1c, 0xf0, 0xe5, 0xec, 0x1f, 0x1d, 0x0a, 0x46, 0x40,
  0xf9, 0x43, 0x17, 0x0b, 0x1a, 0xce, 0x22, 0xa0, 0xf9, 0xf7, 0x37, 0xce,
  0xb2, 0xda, 0x17, 0x35, 0x1a, 0xde, 0xc2, 0x3f, 0xf6, 0xf3, 0x02, 0x25,
  0x31, 0xfc, 0x23, 0x15, 0x01, 0xdd, 0xeb, 0xf7, 0x09, 0xf8, 0x0a, 0xf1,
  0x07, 0xdd, 0xfb, 0xf2, 0x1a, 0xcc, 0x1d, 0x28, 0x20, 0x3b, 0x0d, 0x2e,
  0x16, 0xff, 0xdf, 0xda, 0xdf, 0x43, 0x0d, 0xfe, 0xec, 0x39, 0xd6, 0x13,
  0x0c, 0xe5, 0x36, 0x28, 0x37, 0x16, 0xf4, 0x07, 0x36, 0xb2, 0xef, 0x18,
  0x2c, 0xe4, 0x12, 0x11, 0x20, 0x2f, 0x0e, 0x2f, 0x34, 0x53, 0xdc, 0x0e,
  0x2e, 0x26, 0x03, 0xf0, 0xea, 0x1d, 0x0e, 0x2c, 0xb3, 0xdb, 0x2d, 0xc3,
  0xda, 0x3f, 0xb8, 0x18, 0x56, 0x4f, 0xe9, 0x2f, 0x0e, 0x47, 0xfc, 0xb4,
  0x00, 0x2d, 0xfc, 0x03, 0x5d, 0x0b, 0x19, 0xfa, 0x02, 0xfa, 0x01, 0xc2,
  0xc7, 0x1d, 0x13, 0x36, 0xe8, 0xd9, 0xfe, 0xdd, 0xce, 0x03, 0x0e, 0x02,
  0xf6, 0x16, 0x21, 0x0f, 0x30, 0x19, 0x00, 0xd7, 0xe9, 0x42, 0x21, 0x3a,
  0x21, 0xae, 0xd3, 0x0d, 0x1f, 0xf3, 0x46, 0x11, 0xc7, 0xee, 0xc0, 0xac,
  0x24, 0x00, 0x32, 0x37, 0x17, 0xc6, 0xe5, 0x21, 0x1e, 0xd6, 0xaf, 0xd6,
  0x26, 0xe8, 0x00, 0x2b, 0x10, 0xfa, 0xcd, 0xd1, 0xed, 0xf8, 0xac, 0x0e,
  0xe6, 0xd8, 0x18, 0xfe, 0xb6, 0x22, 0x47, 0xfa, 0x00, 0x0f, 0xd3, 0x53,
  0x1c, 0x36, 0x3f, 0xfc, 0x44, 0xbe, 0x2d, 0xff, 0x04, 0xb8, 0x33, 0x3a,
  0x0e, 0x34, 0x59, 0x2f, 0x37, 0xd0, 0xe6, 0xb3, 0xd3, 0xab, 0x5f, 0xc1,
  0x45, 0x15, 0xa1, 0x49, 0x06, 0x00, 0xfa, 0x3e, 0xc5, 0x45, 0x44, 0xab,
  0x18, 0xfc, 0xed, 0x1b, 0x74, 0xe6, 0xee, 0x45, 0xef, 0xec, 0x24, 0xe9,
  0x19, 0xe6, 0x25, 0x1f, 0xe6, 0x46, 0xf2, 0xcd, 0xf3, 0x4a, 0x0f, 0xfc,
  0xbc, 0x1a, 0xd3, 0xf5, 0x1a, 0xe0, 0x23, 0xf2, 0x17, 0x54, 0x17, 0x4c,
  0x0c, 0x1e, 0x03, 0xb9, 0x26, 0x28, 0xd4, 0x37, 0x63, 0xf8, 0x3b, 0x26,
  0xe3, 0x2c, 0x08, 0xf7, 0xd2, 0x36, 0xd5, 0x21, 0xd5, 0xd8, 0x10, 0xf1,
  0xde, 0x61, 0xe5, 0x06, 0x50, 0xb4, 0x7a, 0xed, 0x12, 0xce, 0x65, 0xe0,
  0x09, 0xa7, 0x30, 0x2b, 0x46, 0x24, 0x36, 0x7b, 0xfe, 0xbd, 0xe4, 0xba,
  0xe3, 0xbf, 0x46, 0xdf, 0x3e, 0x5c, 0xa2, 0x30, 0x15, 0x06, 0xd6, 0x44,
  0xeb, 0x38, 0x4e, 0xf7, 0x49, 0x1d, 0x2c, 0x1f, 0x63, 0xb6, 0x33, 0x30,
  0x13, 0x39, 0xf2, 0xb5, 0x2c, 0xed, 0xde, 0xd6, 0xee, 0x2b, 0x38, 0x63,
  0x18, 0x3f, 0x52, 0x57, 0xdc, 0xa0, 0xc5, 0xf7, 0xee, 0xfc, 0xdd, 0x10,
  0x68, 0x4f, 0x4a, 0xf7, 0xd5, 0x55, 0xf8, 0xf1, 0x2a, 0x43, 0x11, 0x3e,
  0x56, 0xf2, 0x6b, 0xfc, 0xef, 0xe8, 0xdf, 0xf4, 0xfc, 0xfa, 0x07, 0x09,
  0x23, 0x44, 0x09, 0x2f, 0x2b, 0xde, 0x57, 0xfa, 0xf8, 0xfe, 0xd2, 0x4e,
  0xd2, 0x46, 0xda, 0x27, 0x2c, 0x55, 0xf0, 0xc2, 0xea, 0x04, 0xd2, 0xb7,
  0xdd, 0x3c, 0x35, 0x0d, 0xef, 0x46, 0xcc, 0x4b, 0x05, 0xc8, 0x52, 0xed,
  0x27, 0x14, 0x2e, 0x08, 0x37, 0x37, 0x08, 0x49, 0x28, 0xdf, 0xce, 0x4c,
  0xec, 0xff, 0xab, 0xdb, 0x09, 0xd5, 0xfd, 0x49, 0xf5, 0x57, 0x4e, 0xc0,
  0xf0, 0xf9, 0x24, 0xe5, 0x25, 0x0e, 0xf6, 0xf0, 0xce, 0x52, 0x3f, 0x14,
  0xfc, 0x3a, 0x1e, 0xb6, 0xbc, 0x0d, 0xeb, 0xf0, 0x32, 0xeb, 0x3c, 0x2e,
  0x21, 0x15, 0x05, 0x13, 0xf8, 0x56, 0xf9, 0xf0, 0x32, 0xdd, 0x32, 0xea,
  0xd5, 0x0d, 0x0b, 0xb9, 0x68, 0xf3, 0xff, 0x0e, 0x1b, 0xd8, 0xd0, 0xf9,
  0xfe, 0x3f, 0xfd, 0xda, 0xcb, 0x3f, 0xe9, 0x24, 0x11, 0x49, 0xf0, 0x1b,
  0x10, 0x19, 0x31, 0x9b, 0xc6, 0x3f, 0x2d, 0x09, 0x1c, 0x52, 0xf5, 0x1d,
  0x03, 0xc9, 0xef, 0x28, 0x2d, 0xd5, 0x33, 0x1b, 0x0b, 0x3c, 0xe2, 0x5e,
  0xf9, 0x08, 0xe6, 0x38, 0x1b, 0x54, 0x00, 0x00, 0xde, 0xfe, 0xff, 0xff,
  0x04, 0x00, 0x00, 0x00, 0x1e, 0x00, 0x00, 0x00, 0x21, 0x28, 0x43, 0x7f,
  0xe2, 0x12, 0x33, 0x01, 0x91, 0x4f, 0x86, 0x3f, 0x44, 0xde, 0x47, 0xdf,
  0xc0, 0x92, 0x89, 0xcf, 0xf9, 0x0c, 0x0a, 0x74, 0xfa, 0x59, 0x90, 0x9e,
  0x59, 0xd4, 0x00, 0x00, 0x0a, 0xff, 0xff, 0xff, 0x04, 0x00, 0x00, 0x00,
  0x3c, 0x00, 0x00, 0x00, 0x94, 0x06, 0x00, 0x00, 0x72, 0xfd, 0xff, 0xff,
  0xbf, 0x05, 0x00, 0x00, 0x0d, 0xf8, 0xff, 0xff, 0xb3, 0xec, 0xff, 0xff,
  0x37, 0xfd, 0xff, 0xff, 0xf2, 0x03, 0x00, 0x00, 0xd9, 0xfb, 0xff, 0xff,
  0xaa, 0x26, 0x00, 0x00, 0xb9, 0xfe, 0xff, 0xff, 0x24, 0x25, 0x00, 0x00,
  0xcb, 0xff, 0xff, 0xff, 0x3c, 0x00, 0x00, 0x00, 0x82, 0x22, 0x00, 0x00,
  0x23, 0xf4, 0xff, 0xff, 0x52, 0xff, 0xff, 0xff, 0x04, 0x00, 0x00, 0x00,
  0x08, 0x00, 0x00, 0x00, 0x9b, 0xf5, 0xff, 0xff, 0x65, 0x0a, 0x00, 0x00,
  0x34, 0xff, 0xff, 0xff, 0x0f, 0x00, 0x00, 0x00, 0x54, 0x4f, 0x43, 0x4f,
  0x20, 0x43, 0x6f, 0x6e, 0x76, 0x65, 0x72, 0x74, 0x65, 0x64, 0x2e, 0x00,
  0x01, 0x00, 0x00, 0x00, 0x04, 0x00, 0x00, 0x00, 0x00, 0xf9, 0xff, 0xff,
  0x94, 0x01, 0x00, 0x00, 0x88, 0x01, 0x00, 0x00, 0x7c, 0x01, 0x00, 0x00,
  0x04, 0x00, 0x00, 0x00, 0x06, 0x00, 0x00, 0x00, 0x50, 0x01, 0x00, 0x00,
  0x04, 0x01, 0x00, 0x00, 0xbc, 0x00, 0x00, 0x00, 0x74, 0x00, 0x00, 0x00,
  0x38, 0x00, 0x00, 0x00, 0x04, 0x00, 0x00, 0x00, 0xd2, 0xfe, 0xff, 0xff,
  0x03, 0x00, 0x00, 0x00, 0x10, 0x00, 0x00, 0x00, 0x04, 0x00, 0x00, 0x00,
  0x01, 0x00, 0x00, 0x00, 0x0c, 0x00, 0x00, 0x00, 0x01, 0x00, 0x00, 0x00,
  0x00, 0x00, 0x00, 0x00, 0x00, 0x00, 0x0e, 0x00, 0x1a, 0x00, 0x08, 0x00,
  0x0c, 0x00, 0x10, 0x00, 0x07, 0x00, 0x14, 0x00, 0x0e, 0x00, 0x00, 0x00,
  0x00, 0x00, 0x00, 0x09, 0x01, 0x00, 0x00, 0x00, 0x24, 0x00, 0x00, 0x00,
  0x18, 0x00, 0x00, 0x00, 0x0c, 0x00, 0x00, 0x00, 0x00, 0x00, 0x06, 0x00,
  0x08, 0x00, 0x04, 0x00, 0x06, 0x00, 0x00, 0x00, 0x00, 0x00, 0x80, 0x3f,
  0x01, 0x00, 0x00, 0x00, 0x00, 0x00, 0x00, 0x00, 0x01, 0x00, 0x00, 0x00,
  0x08, 0x00, 0x00, 0x00, 0xca, 0xff, 0xff, 0xff, 0x00, 0x00, 0x00, 0x08,
  0x1c, 0x00, 0x00, 0x00, 0x10, 0x00, 0x00, 0x00, 0x08, 0x00, 0x00, 0x00,
  0x04, 0x00, 0x04, 0x00, 0x04, 0x00, 0x00, 0x00, 0x01, 0x00, 0x00, 0x00,
  0x08, 0x00, 0x00, 0x00, 0x03, 0x00, 0x00, 0x00, 0x07, 0x00, 0x00, 0x00,
  0x09, 0x00, 0x00, 0x00, 0x0a, 0x00, 0x00, 0x00, 0x00, 0x00, 0x0e, 0x00,
  0x14, 0x00, 0x00, 0x00, 0x08, 0x00, 0x0c, 0x00, 0x07, 0x00, 0x10, 0x00,
  0x0e, 0x00, 0x00, 0x00, 0x00, 0x00, 0x00, 0x08, 0x1c, 0x00, 0x00, 0x00,
  0x10, 0x00, 0x00, 0x00, 0x04, 0x00, 0x00, 0x00, 0xba, 0xff, 0xff, 0xff,
  0x00, 0x00, 0x00, 0x01, 0x01, 0x00, 0x00, 0x00, 0x07, 0x00, 0x00, 0x00,
  0x03, 0x00, 0x00, 0x00, 0x04, 0x00, 0x00, 0x00, 0x05, 0x00, 0x00, 0x00,
  0x06, 0x00, 0x00, 0x00, 0x00, 0x00, 0x0e, 0x00, 0x16, 0x00, 0x00, 0x00,
  0x08, 0x00, 0x0c, 0x00, 0x07, 0x00, 0x10, 0x00, 0x0e, 0x00, 0x00, 0x00,
  0x00, 0x00, 0x00, 0x08, 0x24, 0x00, 0x00, 0x00, 0x18, 0x00, 0x00, 0x00,
  0x0c, 0x00, 0x00, 0x00, 0x00, 0x00, 0x06, 0x00, 0x08, 0x00, 0x07, 0x00,
  0x06, 0x00, 0x00, 0x00, 0x00, 0x00, 0x00, 0x01, 0x01, 0x00, 0x00, 0x00,
  0x04, 0x00, 0x00, 0x00, 0x03, 0x00, 0x00, 0x00, 0x01, 0x00, 0x00, 0x00,
  0x02, 0x00, 0x00, 0x00, 0x03, 0x00, 0x00, 0x00, 0x00, 0x00, 0x0a, 0x00,
  0x10, 0x00, 0x04, 0x00, 0x08, 0x00, 0x0c, 0x00, 0x0a, 0x00, 0x00, 0x00,
  0x02, 0x00, 0x00, 0x00, 0x10, 0x00, 0x00, 0x00, 0x04, 0x00, 0x00, 0x00,
  0x01, 0x00, 0x00, 0x00, 0x01, 0x00, 0x00, 0x00, 0x01, 0x00, 0x00, 0x00,
  0x0b, 0x00, 0x00, 0x00, 0x01, 0x00, 0x00, 0x00, 0x0c, 0x00, 0x00, 0x00,
  0x01, 0x00, 0x00, 0x00, 0x0b, 0x00, 0x00, 0x00, 0x0d, 0x00, 0x00, 0x00,
  0xe4, 0x05, 0x00, 0x00, 0x48, 0x05, 0x00, 0x00, 0xa8, 0x04, 0x00, 0x00,
  0x34, 0x04, 0x00, 0x00, 0xb0, 0x03, 0x00, 0x00, 0x0c, 0x03, 0x00, 0x00,
  0x98, 0x02, 0x00, 0x00, 0x14, 0x02, 0x00, 0x00, 0x88, 0x01, 0x00, 0x00,
  0xe4, 0x00, 0x00, 0x00, 0x70, 0x00, 0x00, 0x00, 0x3c, 0x00, 0x00, 0x00,
  0x04, 0x00, 0x00, 0x00, 0xd8, 0xff, 0xff, 0xff, 0x18, 0x00, 0x00, 0x00,
  0x04, 0x00, 0x00, 0x00, 0x08, 0x00, 0x00, 0x00, 0x49, 0x64, 0x65, 0x6e,
  0x74, 0x69, 0x74, 0x79, 0x00, 0x00, 0x00, 0x00, 0x02, 0x00, 0x00, 0x00,
  0x01, 0x00, 0x00, 0x00, 0x02, 0x00, 0x00, 0x00, 0x0c, 0x00, 0x0c, 0x00,
  0x04, 0x00, 0x00, 0x00, 0x00, 0x00, 0x08, 0x00, 0x0c, 0x00, 0x00, 0x00,
  0x20, 0x00, 0x00, 0x00, 0x04, 0x00, 0x00, 0x00, 0x12, 0x00, 0x00, 0x00,
  0x64, 0x65, 0x6e, 0x73, 0x65, 0x5f, 0x44, 0x65, 0x6e, 0x73, 0x65, 0x34,
  0x5f, 0x69, 0x6e, 0x70, 0x75, 0x74, 0x00, 0x00, 0x02, 0x00, 0x00, 0x00,
  0x01, 0x00, 0x00, 0x00, 0x78, 0x00, 0x00, 0x00, 0xc2, 0xfa, 0xff, 0xff,
  0x00, 0x00, 0x00, 0x02, 0x60, 0x00, 0x00, 0x00, 0x01, 0x00, 0x00, 0x00,
  0x2c, 0x00, 0x00, 0x00, 0x04, 0x00, 0x00, 0x00, 0xb4, 0xfa, 0xff, 0xff,
  0x18, 0x00, 0x00, 0x00, 0x04, 0x00, 0x00, 0x00, 0x01, 0x00, 0x00, 0x00,
  0x00, 0x00, 0x00, 0x00, 0x00, 0x00, 0x00, 0x00, 0x00, 0x00, 0x00, 0x00,
  0x01, 0x00, 0x00, 0x00, 0x1b, 0xe4, 0xa1, 0x38, 0x25, 0x00, 0x00, 0x00,
  0x73, 0x65, 0x71, 0x75, 0x65, 0x6e, 0x74, 0x69, 0x61, 0x6c, 0x5f, 0x32,
  0x2f, 0x64, 0x65, 0x6e, 0x73, 0x65, 0x5f, 0x44, 0x65, 0x6e, 0x73, 0x65,
  0x36, 0x2f, 0x4d, 0x61, 0x74, 0x4d, 0x75, 0x6c, 0x5f, 0x62, 0x69, 0x61,
  0x73, 0x00, 0x00, 0x00, 0x01, 0x00, 0x00, 0x00, 0x02, 0x00, 0x00, 0x00,
  0x32, 0xfb, 0xff, 0xff, 0x00, 0x00, 0x00, 0x09, 0x8c, 0x00, 0x00, 0x00,
  0x03, 0x00, 0x00, 0x00, 0x44, 0x00, 0x00, 0x00, 0x04, 0x00, 0x00, 0x00,
  0xbc, 0xfb, 0xff, 0xff, 0x30, 0x00, 0x00, 0x00, 0x24, 0x00, 0x00, 0x00,
  0x18, 0x00, 0x00, 0x00, 0x04, 0x00, 0x00, 0x00, 0x01, 0x00, 0x00, 0x00,
  0x00, 0x00, 0x00, 0x00, 0x00, 0x00, 0x00, 0x00, 0x00, 0x00, 0x00, 0x00,
  0x01, 0x00, 0x00, 0x00, 0x89, 0xca, 0x06, 0x3c, 0x01, 0x00, 0x00, 0x00,
  0xf4, 0xbc, 0x85, 0x3f, 0x01, 0x00, 0x00, 0x00, 0xf9, 0xee, 0x7f, 0xbf,
  0x39, 0x00, 0x00, 0x00, 0x73, 0x65, 0x71, 0x75, 0x65, 0x6e, 0x74, 0x69,
  0x61, 0x6c, 0x5f, 0x32, 0x2f, 0x64, 0x65, 0x6e, 0x73, 0x65, 0x5f, 0x44,
  0x65, 0x6e, 0x73, 0x65, 0x36, 0x2f, 0x4d, 0x61, 0x74, 0x4d, 0x75, 0x6c,
  0x2f, 0x52, 0x65, 0x61, 0x64, 0x56, 0x61, 0x72, 0x69, 0x61, 0x62, 0x6c,
  0x65, 0x4f, 0x70, 0x2f, 0x74, 0x72, 0x61, 0x6e, 0x73, 0x70, 0x6f, 0x73,
  0x65, 0x00, 0x00, 0x00, 0x02, 0x00, 0x00, 0x00, 0x02, 0x00, 0x00, 0x00,
  0x0f, 0x00, 0x00, 0x00, 0xd2, 0xfb, 0xff, 0xff, 0x00, 0x00, 0x00, 0x09,
  0x74, 0x00, 0x00, 0x00, 0x0b, 0x00, 0x00, 0x00, 0x44, 0x00, 0x00, 0x00,
  0x04, 0x00, 0x00, 0x00, 0x5c, 0xfc, 0xff, 0xff, 0x30, 0x00, 0x00, 0x00,
  0x24, 0x00, 0x00, 0x00, 0x18, 0x00, 0x00, 0x00, 0x04, 0x00, 0x00, 0x00,
  0x01, 0x00, 0x00, 0x00, 0x04, 0x00, 0x00, 0x00, 0x00, 0x00, 0x00, 0x00,
  0x00, 0x00, 0x00, 0x00, 0x01, 0x00, 0x00, 0x00, 0x77, 0x5e, 0x2f, 0x3d,
  0x01, 0x00, 0x00, 0x00, 0xc7, 0xc7, 0xa8, 0x40, 0x01, 0x00, 0x00, 0x00,
  0x6b, 0x96, 0xb4, 0xc0, 0x21, 0x00, 0x00, 0x00, 0x73, 0x65, 0x71, 0x75,
  0x65, 0x6e, 0x74, 0x69, 0x61, 0x6c, 0x5f, 0x32, 0x2f, 0x64, 0x65, 0x6e,
  0x73, 0x65, 0x5f, 0x44, 0x65, 0x6e, 0x73, 0x65, 0x36, 0x2f, 0x42, 0x69,
  0x61, 0x73, 0x41, 0x64, 0x64, 0x00, 0x00, 0x00, 0x02, 0x00, 0x00, 0x00,
  0x01, 0x00, 0x00, 0x00, 0x02, 0x00, 0x00, 0x00, 0x5a, 0xfc, 0xff, 0xff,
  0x00, 0x00, 0x00, 0x09, 0x6c, 0x00, 0x00, 0x00, 0x09, 0x00, 0x00, 0x00,
  0x40, 0x00, 0x00, 0x00, 0x04, 0x00, 0x00, 0x00, 0xe4, 0xfc, 0xff, 0xff,
  0x2c, 0x00, 0x00, 0x00, 0x20, 0x00, 0x00, 0x00, 0x14, 0x00, 0x00, 0x00,
  0x04, 0x00, 0x00, 0x00, 0x01, 0x00, 0x00, 0x00, 0x80, 0xff, 0xff, 0xff,
  0xff, 0xff, 0xff, 0xff, 0x01, 0x00, 0x00, 0x00, 0x09, 0xbc, 0x19, 0x3c,
  0x01, 0x00, 0x00, 0x00, 0x4d, 0x22, 0x19, 0x40, 0x01, 0x00, 0x00, 0x00,
  0x00, 0x00, 0x00, 0x00, 0x1e, 0x00, 0x00, 0x00, 0x73, 0x65, 0x71, 0x75,
  0x65, 0x6e, 0x74, 0x69, 0x61, 0x6c, 0x5f, 0x32, 0x2f, 0x64, 0x65, 0x6e,
  0x73, 0x65, 0x5f, 0x44, 0x65, 0x6e, 0x73, 0x65, 0x35, 0x2f, 0x52, 0x65,
  0x6c, 0x75, 0x00, 0x00, 0x02, 0x00, 0x00, 0x00, 0x01, 0x00, 0x00, 0x00,
  0x0f, 0x00, 0x00, 0x00, 0xda, 0xfc, 0xff, 0xff, 0x00, 0x00, 0x00, 0x02,
  0x60, 0x00, 0x00, 0x00, 0x02, 0x00, 0x00, 0x00, 0x2c, 0x00, 0x00, 0x00,
  0x04, 0x00, 0x00, 0x00, 0xcc, 0xfc, 0xff, 0xff, 0x18, 0x00, 0x00, 0x00,
  0x04, 0x00, 0x00, 0x00, 0x01, 0x00, 0x00, 0x00, 0x00, 0x00, 0x00, 0x00,
  0x00, 0x00, 0x00, 0x00, 0x00, 0x00, 0x00, 0x00, 0x01, 0x00, 0x00, 0x00,
  0x5e, 0x3d, 0xf6, 0x37, 0x25, 0x00, 0x00, 0x00, 0x73, 0x65, 0x71, 0x75,
  0x65, 0x6e, 0x74, 0x69, 0x61, 0x6c, 0x5f, 0x32, 0x2f, 0x64, 0x65, 0x6e,
  0x73, 0x65, 0x5f, 0x44, 0x65, 0x6e, 0x73, 0x65, 0x35, 0x2f, 0x4d, 0x61,
  0x74, 0x4d, 0x75, 0x6c, 0x5f, 0x62, 0x69, 0x61, 0x73, 0x00, 0x00, 0x00,
  0x01, 0x00, 0x00, 0x00, 0x0f, 0x00, 0x00, 0x00, 0x4a, 0xfd, 0xff, 0xff,
  0x00, 0x00, 0x00, 0x09, 0x8c, 0x00, 0x00, 0x00, 0x04, 0x00, 0x00, 0x00,
  0x44, 0x00, 0x00, 0x00, 0x04, 0x00, 0x00, 0x00, 0xd4, 0xfd, 0xff, 0xff,
  0x30, 0x00, 0x00, 0x00, 0x24, 0x00, 0x00, 0x00, 0x18, 0x00, 0x00, 0x00,
  0x04, 0x00, 0x00, 0x00, 0x01, 0x00, 0x00, 0x00, 0x00, 0x00, 0x00, 0x00,
  0x00, 0x00, 0x00, 0x00, 0x00, 0x00, 0x00, 0x00, 0x01, 0x00, 0x00, 0x00,
  0x84, 0x24, 0x87, 0x3b, 0x01, 0x00, 0x00, 0x00, 0x3b, 0x16, 0x06, 0x3f,
  0x01, 0x00, 0x00, 0x00, 0xa6, 0x6a, 0xd4, 0xbe, 0x39, 0x00, 0x00, 0x00,
  0x73, 0x65, 0x71, 0x75, 0x65, 0x6e, 0x74, 0x69, 0x61, 0x6c, 0x5f, 0x32,
  0x2f, 0x64, 0x65, 0x6e, 0x73, 0x65, 0x5f, 0x44, 0x65, 0x6e, 0x73, 0x65,
  0x35, 0x2f, 0x4d, 0x61, 0x74, 0x4d, 0x75, 0x6c, 0x2f, 0x52, 0x65, 0x61,
  0x64, 0x56, 0x61, 0x72, 0x69, 0x61, 0x62, 0x6c, 0x65, 0x4f, 0x70, 0x2f,
  0x74, 0x72, 0x61, 0x6e, 0x73, 0x70, 0x6f, 0x73, 0x65, 0x00, 0x00, 0x00,
  0x02, 0x00, 0x00, 0x00, 0x0f, 0x00, 0x00, 0x00, 0x32, 0x00, 0x00, 0x00,
  0xea, 0xfd, 0xff, 0xff, 0x00, 0x00, 0x00, 0x09, 0x6c, 0x00, 0x00, 0x00,
  0x08, 0x00, 0x00, 0x00, 0x40, 0x00, 0x00, 0x00, 0x04, 0x00, 0x00, 0x00,
  0x74, 0xfe, 0xff, 0xff, 0x2c, 0x00, 0x00, 0x00, 0x20, 0x00, 0x00, 0x00,
  0x14, 0x00, 0x00, 0x00, 0x04, 0x00, 0x00, 0x00, 0x01, 0x00, 0x00, 0x00,
  0x80, 0xff, 0xff, 0xff, 0xff, 0xff, 0xff, 0xff, 0x01, 0x00, 0x00, 0x00,
  0xae, 0x39, 0xe9, 0x3b, 0x01, 0x00, 0x00, 0x00, 0x74, 0x50, 0xe8, 0x3f,
  0x01, 0x00, 0x00, 0x00, 0x00, 0x00, 0x00, 0x00, 0x1e, 0x00, 0x00, 0x00,
  0x73, 0x65, 0x71, 0x75, 0x65, 0x6e, 0x74, 0x69, 0x61, 0x6c, 0x5f, 0x32,
  0x2f, 0x64, 0x65, 0x6e, 0x73, 0x65, 0x5f, 0x44, 0x65, 0x6e, 0x73, 0x65,
  0x34, 0x2f, 0x52, 0x65, 0x6c, 0x75, 0x00, 0x00, 0x02, 0x00, 0x00, 0x00,
  0x01, 0x00, 0x00, 0x00, 0x32, 0x00, 0x00, 0x00, 0x6a, 0xfe, 0xff, 0xff,
  0x00, 0x00, 0x00, 0x02, 0x60, 0x00, 0x00, 0x00, 0x05, 0x00, 0x00, 0x00,
  0x2c, 0x00, 0x00, 0x00, 0x04, 0x00, 0x00, 0x00, 0x5c, 0xfe, 0xff, 0xff,
  0x18, 0x00, 0x00, 0x00, 0x04, 0x00, 0x00, 0x00, 0x01, 0x00, 0x00, 0x00,
  0x00, 0x00, 0x00, 0x00, 0x00, 0x00, 0x00, 0x00, 0x00, 0x00, 0x00, 0x00,
  0x01, 0x00, 0x00, 0x00, 0x0c, 0xfe, 0xb9, 0x37, 0x25, 0x00, 0x00, 0x00,
  0x73, 0x65, 0x71, 0x75, 0x65, 0x6e, 0x74, 0x69, 0x61, 0x6c, 0x5f, 0x32,
  0x2f, 0x64, 0x65, 0x6e, 0x73, 0x65, 0x5f, 0x44, 0x65, 0x6e, 0x73, 0x65,
  0x34, 0x2f, 0x4d, 0x61, 0x74, 0x4d, 0x75, 0x6c, 0x5f, 0x62, 0x69, 0x61,
  0x73, 0x00, 0x00, 0x00, 0x01, 0x00, 0x00, 0x00, 0x32, 0x00, 0x00, 0x00,
  0xda, 0xfe, 0xff, 0xff, 0x00, 0x00, 0x00, 0x09, 0x88, 0x00, 0x00, 0x00,
  0x06, 0x00, 0x00, 0x00, 0x40, 0x00, 0x00, 0x00, 0x04, 0x00, 0x00, 0x00,
  0x64, 0xff, 0xff, 0xff, 0x2c, 0x00, 0x00, 0x00, 0x20, 0x00, 0x00, 0x00,
  0x14, 0x00, 0x00, 0x00, 0x04, 0x00, 0x00, 0x00, 0x01, 0x00, 0x00, 0x00,
  0x00, 0x00, 0x00, 0x00, 0x00, 0x00, 0x00, 0x00, 0x01, 0x00, 0x00, 0x00,
  0xf4, 0x46, 0x39, 0x3b, 0x01, 0x00, 0x00, 0x00, 0x66, 0xd4, 0xb7, 0x3e,
  0x01, 0x00, 0x00, 0x00, 0xab, 0x8b, 0xb0, 0xbe, 0x39, 0x00, 0x00, 0x00,
  0x73, 0x65, 0x71, 0x75, 0x65, 0x6e, 0x74, 0x69, 0x61, 0x6c, 0x5f, 0x32,
  0x2f, 0x64, 0x65, 0x6e, 0x73, 0x65, 0x5f, 0x44, 0x65, 0x6e, 0x73, 0x65,
  0x34, 0x2f, 0x4d, 0x61, 0x74, 0x4d, 0x75, 0x6c, 0x2f, 0x52, 0x65, 0x61,
  0x64, 0x56, 0x61, 0x72, 0x69, 0x61, 0x62, 0x6c, 0x65, 0x4f, 0x70, 0x2f,
  0x74, 0x72, 0x61, 0x6e, 0x73, 0x70, 0x6f, 0x73, 0x65, 0x00, 0x00, 0x00,
  0x02, 0x00, 0x00, 0x00, 0x32, 0x00, 0x00, 0x00, 0x78, 0x00, 0x00, 0x00,
  0x76, 0xff, 0xff, 0xff, 0x00, 0x00, 0x00, 0x09, 0x74, 0x00, 0x00, 0x00,
  0x07, 0x00, 0x00, 0x00, 0x50, 0x00, 0x00, 0x00, 0x10, 0x00, 0x00, 0x00,
  0x0c, 0x00, 0x14, 0x00, 0x04, 0x00, 0x08, 0x00, 0x0c, 0x00, 0x10, 0x00,
  0x0c, 0x00, 0x00, 0x00, 0x30, 0x00, 0x00, 0x00, 0x24, 0x00, 0x00, 0x00,
  0x18, 0x00, 0x00, 0x00, 0x04, 0x00, 0x00, 0x00, 0x01, 0x00, 0x00, 0x00,
  0x00, 0x00, 0x00, 0x00, 0x00, 0x00, 0x00, 0x00, 0x00, 0x00, 0x00, 0x00,
  0x01, 0x00, 0x00, 0x00, 0x7e, 0x7e, 0x00, 0x3c, 0x01, 0x00, 0x00, 0x00,
  0x00, 0xf8, 0x7f, 0x3f, 0x01, 0x00, 0x00, 0x00, 0x00, 0x00, 0x80, 0xbf,
  0x17, 0x00, 0x00, 0x00, 0x64, 0x65, 0x6e, 0x73, 0x65, 0x5f, 0x44, 0x65,
  0x6e, 0x73, 0x65, 0x34, 0x5f, 0x69, 0x6e, 0x70, 0x75, 0x74, 0x5f, 0x69,
  0x6e, 0x74, 0x38, 0x00, 0x02, 0x00, 0x00, 0x00, 0x01, 0x00, 0x00, 0x00,
  0x78, 0x00, 0x00, 0x00, 0x00, 0x00, 0x0e, 0x00, 0x18, 0x00, 0x08, 0x00,
  0x07, 0x00, 0x0c, 0x00, 0x10, 0x00, 0x14, 0x00, 0x0e, 0x00, 0x00, 0x00,
  0x00, 0x00, 0x00, 0x09, 0x54, 0x00, 0x00, 0x00, 0x0a, 0x00, 0x00, 0x00,
  0x38, 0x00, 0x00, 0x00, 0x10, 0x00, 0x00, 0x00, 0x0c, 0x00, 0x0c, 0x00,
  0x00, 0x00, 0x00, 0x00, 0x04, 0x00, 0x08, 0x00, 0x0c, 0x00, 0x00, 0x00,
  0x18, 0x00, 0x00, 0x00, 0x04, 0x00, 0x00, 0x00, 0x01, 0x00, 0x00, 0x00,
  0x80, 0xff, 0xff, 0xff, 0xff, 0xff, 0xff, 0xff, 0x00, 0x00, 0x00, 0x00,
  0x01, 0x00, 0x00, 0x00, 0x00, 0x00, 0x80, 0x3b, 0x0d, 0x00, 0x00, 0x00,
  0x49, 0x64, 0x65, 0x6e, 0x74, 0x69, 0x74, 0x79, 0x5f, 0x69, 0x6e, 0x74,
  0x38, 0x00, 0x00, 0x00, 0x02, 0x00, 0x00, 0x00, 0x01, 0x00, 0x00, 0x00,
  0x02, 0x00, 0x00, 0x00, 0x04, 0x00, 0x00, 0x00, 0x4c, 0x00, 0x00, 0x00,
  0x30, 0x00, 0x00, 0x00, 0x1c, 0x00, 0x00, 0x00, 0x04, 0x00, 0x00, 0x00,
  0xe6, 0xff, 0xff, 0xff, 0x00, 0x00, 0x00, 0x06, 0x02, 0x00, 0x00, 0x00,
  0x00, 0x00, 0x06, 0x00, 0x06, 0x00, 0x05, 0x00, 0x06, 0x00, 0x00, 0x00,
  0x00, 0x72, 0x0a, 0x00, 0x0e, 0x00, 0x07, 0x00, 0x00, 0x00, 0x08, 0x00,
  0x0a, 0x00, 0x00, 0x00, 0x00, 0x00, 0x00, 0x19, 0x02, 0x00, 0x00, 0x00,
  0x00, 0x00, 0x0a, 0x00, 0x0c, 0x00, 0x07, 0x00, 0x00, 0x00, 0x08, 0x00,
  0x0a, 0x00, 0x00, 0x00, 0x00, 0x00, 0x00, 0x09, 0x04, 0x00, 0x00, 0x00

};