const unsigned char model[] = {
  0x1c, 0x00, 0x00, 0x00, 0x54, 0x46, 0x4c, 0x33, 0x00, 0x00, 0x12, 0x00,
  0x1c, 0x00, 0x04, 0x00, 0x08, 0x00, 0x0c, 0x00, 0x10, 0x00, 0x14, 0x00,
  0x00, 0x00, 0x18, 0x00, 0x12, 0x00, 0x00, 0x00, 0x03, 0x00, 0x00, 0x00,
  0x98, 0x24, 0x00, 0x00, 0xa4, 0x1c, 0x00, 0x00, 0x8c, 0x1c, 0x00, 0x00,
  0x3c, 0x00, 0x00, 0x00, 0x04, 0x00, 0x00, 0x00, 0x01, 0x00, 0x00, 0x00,
  0x0c, 0x00, 0x00, 0x00, 0x08, 0x00, 0x0c, 0x00, 0x04, 0x00, 0x08, 0x00,
  0x08, 0x00, 0x00, 0x00, 0x08, 0x00, 0x00, 0x00, 0x0c, 0x00, 0x00, 0x00,
  0x13, 0x00, 0x00, 0x00, 0x6d, 0x69, 0x6e, 0x5f, 0x72, 0x75, 0x6e, 0x74,
  0x69, 0x6d, 0x65, 0x5f, 0x76, 0x65, 0x72, 0x73, 0x69, 0x6f, 0x6e, 0x00,
  0x0d, 0x00, 0x00, 0x00, 0x44, 0x1c, 0x00, 0x00, 0x28, 0x1c, 0x00, 0x00,
  0xdc, 0x1b, 0x00, 0x00, 0x9c, 0x1b, 0x00, 0x00, 0x9c, 0x18, 0x00, 0x00,
  0xc4, 0x17, 0x00, 0x00, 0x44, 0x00, 0x00, 0x00, 0x3c, 0x00, 0x00, 0x00,
  0x34, 0x00, 0x00, 0x00, 0x2c, 0x00, 0x00, 0x00, 0x24, 0x00, 0x00, 0x00,
  0x1c, 0x00, 0x00, 0x00, 0x04, 0x00, 0x00, 0x00, 0x56, 0xe3, 0xff, 0xff,
  0x04, 0x00, 0x00, 0x00, 0x05, 0x00, 0x00, 0x00, 0x31, 0x2e, 0x35, 0x2e,
  0x30, 0x00, 0x00, 0x00, 0x38, 0xe3, 0xff, 0xff, 0x3c, 0xe3, 0xff, 0xff,
  0x40, 0xe3, 0xff, 0xff, 0x44, 0xe3, 0xff, 0xff, 0x48, 0xe3, 0xff, 0xff,
  0x7e, 0xe3, 0xff, 0xff, 0x04, 0x00, 0x00, 0x00, 0x70, 0x17, 0x00, 0x00,
  0x04, 0x0b, 0xf0, 0x2c, 0xf0, 0x12, 0xe2, 0xd8, 0x00, 0x00, 0x10, 0xbb,
  0x04, 0x0a, 0xf5, 0x3e, 0x0a, 0xbf, 0xee, 0x32, 0xdc, 0x2e, 0xe9, 0xda,
  0x23, 0x2a, 0xf7, 0x1c, 0xe8, 0xcd, 0xe7, 0x1d, 0xe9, 0x2b, 0xc6, 0xe0,
  0xff, 0x34, 0xe4, 0x17, 0xb9, 0x28, 0xe8, 0x1b, 0xee, 0xea, 0x22, 0x21,
  0x10, 0xce, 0xd1, 0x0c, 0xee, 0x16, 0x22, 0xfb, 0xc1, 0x01, 0xf0, 0xf6,
  0xf8, 0xfe, 0xeb, 0xfa, 0x07, 0x0b, 0x1d, 0xdf, 0xdb, 0x0c, 0xeb, 0x11,
  0xc6, 0xfa, 0xce, 0x24, 0xec, 0x25, 0xe5, 0xc5, 0x05, 0x0f, 0x1c, 0x27,
  0xfc, 0x09, 0x08, 0x07, 0x22, 0xe1, 0xbc, 0x06, 0x10, 0x00, 0x06, 0x0a,
  0xca, 0xeb, 0x17, 0x0b, 0x07, 0x0f, 0x07, 0x19, 0x18, 0x10, 0x04, 0x03,
  0xfb, 0x03, 0x13, 0xea, 0xff, 0xcd, 0x05, 0x02, 0x22, 0xff, 0xe5, 0xf3,
  0x39, 0xc4, 0x21, 0x15, 0xc0, 0x42, 0x1d, 0xaf, 0x0a, 0x30, 0xcb, 0x68,
  0x03, 0xd6, 0x3e, 0xec, 0x03, 0x6e, 0xee, 0x0c, 0x4e, 0xdf, 0x28, 0x23,
  0xeb, 0x2c, 0xf8, 0x22, 0x00, 0x59, 0xd3, 0x16, 0x00, 0xf2, 0xe1, 0x2f,
  0x26, 0xfb, 0x16, 0xda, 0x3f, 0x23, 0xd0, 0xea, 0xdf, 0xde, 0x3b, 0x27,
  0xe3, 0xc4, 0xd5, 0xde, 0x0e, 0xf2, 0x15, 0xb0, 0x2a, 0xfe, 0x16, 0xdd,
  0xcb, 0xda, 0xf6, 0x14, 0x04, 0x1d, 0xfd, 0xb8, 0xd4, 0xeb, 0x0a, 0xfd,
  0xd1, 0xeb, 0x09, 0xf9, 0x27, 0x28, 0x2a, 0x10, 0xed, 0xf4, 0x23, 0xfe,
  0x0b, 0xe2, 0xf3, 0xe0, 0xf8, 0xb8, 0x04, 0xd7, 0x05, 0xda, 0x05, 0x1b,
  0x08, 0xd1, 0x1a, 0xd3, 0xd8, 0xd4, 0x29, 0xed, 0xb7, 0xde, 0xf3, 0xe6,
  0xe4, 0xfa, 0xfd, 0xfa, 0x05, 0x11, 0x02, 0xff, 0xfe, 0xcc, 0xeb, 0xeb,
  0xe3, 0x2c, 0x23, 0x2e, 0x18, 0xe5, 0x10, 0xff, 0x3e, 0x4b, 0xff, 0xbf,
  0xf9, 0xc5, 0x44, 0x5f, 0xf8, 0xfc, 0xfc, 0xfd, 0x11, 0x52, 0x02, 0xdb,
  0xd0, 0xb5, 0xf7, 0x20, 0xca, 0xa4, 0x02, 0xe5, 0x06, 0x6e, 0xe0, 0xcb,
  0x00, 0xcc, 0x1e, 0x61, 0xf0, 0x01, 0xfc, 0x2d, 0x0d, 0x15, 0xdf, 0x01,
  0x10, 0xfb, 0x0d, 0x32, 0xcf, 0xda, 0x03, 0xfe, 0x2d, 0x16, 0x06, 0xdc,
  0xed, 0x2c, 0x09, 0x57, 0xe1, 0xf6, 0x17, 0xf4, 0xf3, 0x2c, 0xc1, 0xfc,
  0x13, 0xdb, 0xea, 0x2e, 0xef, 0xd8, 0x0c, 0x0f, 0xe2, 0x1b, 0xee, 0xe4,
  0x12, 0xf3, 0x1f, 0x33, 0x37, 0xef, 0xff, 0xf4, 0x18, 0x5d, 0x04, 0x03,
  0xfd, 0x28, 0x0b, 0x4e, 0xf8, 0x2e, 0xbb, 0xfa, 0x0a, 0x43, 0x0f, 0x14,
  0xe3, 0xe9, 0xfc, 0x57, 0x10, 0x13, 0x0d, 0xec, 0xee, 0x6b, 0x09, 0x23,
  0x0a, 0x12, 0x09, 0x24, 0x19, 0xe7, 0xf4, 0xfb, 0x1c, 0xfd, 0x24, 0x10,
  0x28, 0xf9, 0xf8, 0x24, 0xde, 0x23, 0x13, 0x20, 0xca, 0x1c, 0xf1, 0xea,
  0x0e, 0xca, 0xf4, 0x08, 0x05, 0xf7, 0xda, 0xf0, 0x09, 0x16, 0xfd, 0x01,
  0xd4, 0xcd, 0x0a, 0x0a, 0x30, 0x1e, 0xdf, 0x0b, 0xe7, 0x08, 0xe4, 0x01,
  0xf4, 0xec, 0x22, 0x45, 0xff, 0xdd, 0x33, 0xfd, 0x0c, 0xf7, 0x1e, 0x09,
  0xf1, 0xef, 0x08, 0xe3, 0x1a, 0x1a, 0x1d, 0x02, 0xe2, 0xfb, 0x17, 0x11,
  0xeb, 0xe3, 0x02, 0x40, 0xf5, 0x34, 0x2d, 0xde, 0x16, 0x22, 0x29, 0x0a,
  0xd6, 0x0b, 0x09, 0x2a, 0xe6, 0x0b, 0xef, 0xe7, 0xe0, 0x1f, 0xf1, 0x30,
  0x24, 0x1e, 0x0b, 0x23, 0x00, 0xde, 0xf0, 0xd3, 0xfa, 0x1a, 0xc9, 0xcc,
  0x17, 0xf5, 0x10, 0xf0, 0x25, 0x0d, 0xdf, 0x3a, 0x12, 0xfe, 0x10, 0x33,
  0xeb, 0x33, 0x19, 0x2c, 0xe5, 0xfa, 0x1d, 0xf4, 0x2f, 0xe9, 0xcd, 0x06,
  0xfe, 0xf8, 0xd7, 0x1c, 0xfd, 0x0a, 0x1e, 0x06, 0xce, 0x12, 0xed, 0x21,
  0x10, 0xe5, 0x34, 0xe6, 0xf9, 0xea, 0x34, 0xf3, 0x13, 0xf5, 0xd4, 0xf9,
  0x02, 0xd5, 0xd3, 0xf3, 0xfd, 0xd0, 0xfa, 0xf9, 0xd0, 0x17, 0xf9, 0x16,
  0x2c, 0xe5, 0xf3, 0xd8, 0x0e, 0xf0, 0xf8, 0x0b, 0xd1, 0x14, 0x3c, 0x04,
  0xff, 0xf7, 0xff, 0x06, 0xfc, 0xdf, 0xdc, 0x13, 0xed, 0x20, 0xd2, 0xdb,
  0x14, 0x13, 0x09, 0x20, 0x1b, 0x16, 0x14, 0x11, 0xee, 0xf4, 0x11, 0xf9,
  0x17, 0x1a, 0xf5, 0xe2, 0x20, 0xff, 0x11, 0x1a, 0x26, 0xf7, 0xe7, 0xcf,
  0xf8, 0x01, 0xf1, 0x2a, 0x01, 0x23, 0xfc, 0xe2, 0x1b, 0xdc, 0x03, 0x03,
  0x00, 0x36, 0x11, 0x0c, 0xf5, 0xc6, 0x00, 0x09, 0x01, 0xe6, 0xf8, 0x24,
  0xd7, 0xda, 0x99, 0x3c, 0x22, 0x12, 0xc6, 0xb0, 0xc1, 0x23, 0xd9, 0x4d,
  0xf8, 0xda, 0xcf, 0xf6, 0xd7, 0x0f, 0xfa, 0xe0, 0xc8, 0xfc, 0xfe, 0x39,
  0x36, 0xc2, 0xbf, 0xe8, 0x17, 0x54, 0xc8, 0xcd, 0xe7, 0xfc, 0x17, 0x57,
  0x1b, 0x07, 0xf5, 0x1a, 0x03, 0x24, 0xe9, 0xe7, 0xd8, 0xe8, 0xde, 0x47,
  0x4c, 0x03, 0xec, 0xe9, 0xc5, 0xf4, 0x4a, 0xf5, 0xd6, 0xc2, 0x0a, 0x12,
  0x5e, 0x1c, 0xcc, 0xd7, 0xf3, 0xf2, 0x0c, 0xff, 0xb2, 0xef, 0x04, 0xfc,
  0x23, 0xd2, 0xe4, 0x1f, 0x22, 0x12, 0x47, 0xc2, 0xf9, 0x2d, 0x1b, 0x0b,
  0x3b, 0xf8, 0xd6, 0x18, 0x04, 0x0e, 0x3a, 0x0c, 0x10, 0xed, 0x19, 0x3c,
  0x15, 0x22, 0xf7, 0xdb, 0x23, 0x44, 0x3c, 0xf3, 0x10, 0x09, 0x13, 0x2a,
  0x23, 0xcd, 0xe0, 0xf8, 0xf5, 0x06, 0x33, 0x26, 0xd4, 0xea, 0x09, 0x0e,
  0x40, 0xcc, 0x1c, 0xf2, 0xe4, 0x28, 0xf9, 0x20, 0x02, 0x16, 0x06, 0x2c,
  0x08, 0xea, 0x1b, 0x0d, 0xc4, 0xff, 0xdf, 0x06, 0x33, 0x08, 0x13, 0x39,
  0x12, 0x18, 0xf0, 0xca, 0xe4, 0xe0, 0x04, 0xf9, 0x4e, 0xef, 0xf5, 0x15,
  0xdd, 0x01, 0x3e, 0x17, 0x0c, 0x25, 0xf0, 0x29, 0x28, 0xfc, 0xef, 0x41,
  0xf2, 0x21, 0x00, 0xfb, 0xfc, 0x06, 0x0e, 0x1b, 0x0b, 0xc7, 0xe8, 0xd8,
  0x05, 0x02, 0x0c, 0xe1, 0xfa, 0x09, 0xd9, 0x07, 0x20, 0xee, 0xfc, 0x15,
  0x14, 0x0c, 0x19, 0x2e, 0x21, 0xfc, 0xed, 0x19, 0x1f, 0xe2, 0x0f, 0xe9,
  0xfa, 0xfa, 0x26, 0xe7, 0x31, 0x10, 0xbb, 0xf7, 0x24, 0x0d, 0xe1, 0xde,
  0xf0, 0x15, 0xea, 0x1f, 0x2d, 0xdb, 0xcb, 0x2e, 0x11, 0xe2, 0xfc, 0x23,
  0xe6, 0x1d, 0x08, 0xce, 0xfe, 0x06, 0xeb, 0x10, 0xe3, 0xf3, 0xfe, 0xf6,
  0xe0, 0x13, 0x3c, 0x02, 0xc5, 0xdc, 0xef, 0xde, 0xf2, 0x12, 0xe2, 0x1b,
  0xe5, 0xc6, 0x3e, 0xf3, 0xe6, 0x08, 0xee, 0x17, 0x1e, 0x1e, 0xfa, 0xfc,
  0xff, 0xf0, 0x43, 0xcb, 0xef, 0xf6, 0xe4, 0xf8, 0x3a, 0xb9, 0xc6, 0xf8,
  0xd5, 0xf8, 0x00, 0xf4, 0xc5, 0x04, 0xf5, 0xf1, 0xfd, 0xe6, 0xf6, 0x07,
  0xed, 0xbf, 0xde, 0x0c, 0xe9, 0x0a, 0xd5, 0x0e, 0xfa, 0xec, 0x06, 0xdb,
  0x15, 0xee, 0x2d, 0xda, 0x02, 0x18, 0xf8, 0x02, 0x38, 0x26, 0xe3, 0xe5,
  0x32, 0xd9, 0x24, 0xee, 0xeb, 0x1e, 0x19, 0x08, 0xe9, 0xf1, 0xec, 0xfc,
  0xf6, 0x08, 0xe3, 0x00, 0x3a, 0xeb, 0xf9, 0xf2, 0xdf, 0xe4, 0x04, 0x14,
  0x17, 0xfc, 0x11, 0xf2, 0xf3, 0x02, 0x0c, 0x20, 0xe8, 0x19, 0x1b, 0x14,
  0xf0, 0x00, 0xf0, 0x05, 0xea, 0xf1, 0xcc, 0xf2, 0xf2, 0xeb, 0x22, 0xec,
  0xe5, 0xf6, 0x01, 0xee, 0x10, 0xca, 0xf5, 0x3c, 0x01, 0xcb, 0x2f, 0xdb,
  0xe7, 0xf3, 0xdb, 0x0c, 0x5e, 0xa6, 0xed, 0xfa, 0xc7, 0xf7, 0x4d, 0xc4,
  0xf3, 0xeb, 0xf5, 0x2c, 0x49, 0xad, 0xdc, 0x30, 0xf6, 0x36, 0x1b, 0xe0,
  0x2c, 0x05, 0x05, 0x00, 0x29, 0xe6, 0xef, 0x07, 0xfd, 0x50, 0x49, 0x28,
  0xf0, 0x01, 0x26, 0x1f, 0x39, 0xec, 0xe1, 0xe7, 0x01, 0xec, 0x06, 0x0e,
  0xa3, 0x20, 0xee, 0x08, 0x3d, 0xe9, 0xfb, 0xfa, 0x03, 0x1e, 0xe5, 0xf1,
  0x04, 0xcc, 0x37, 0xf6, 0xf6, 0x09, 0xcd, 0xf6, 0x21, 0xec, 0x12, 0x34,
  0x0d, 0xe7, 0x51, 0xf3, 0x22, 0x36, 0x16, 0x36, 0xf5, 0x34, 0xd9, 0x08,
  0xf3, 0x1b, 0x53, 0x3b, 0xe8, 0x11, 0xe5, 0x3e, 0x33, 0x49, 0x16, 0x2e,
  0x00, 0x01, 0x32, 0x47, 0xf4, 0x14, 0xc1, 0x2a, 0xfe, 0x2d, 0xcc, 0xf9,
  0xea, 0x3e, 0x16, 0x20, 0x01, 0x02, 0x0e, 0x22, 0x2b, 0xe3, 0xdb, 0xf1,
  0xc8, 0xef, 0x0c, 0x2a, 0xf3, 0x03, 0xe5, 0x2b, 0xe3, 0x32, 0xea, 0xd3,
  0xbd, 0xf3, 0x14, 0x42, 0xfb, 0xde, 0x17, 0x28, 0xdd, 0x51, 0xe4, 0xc3,
  0xe4, 0x1f, 0xfe, 0x47, 0xc3, 0xc5, 0x01, 0xff, 0x35, 0x18, 0xe8, 0xeb,
  0xfa, 0xe8, 0x20, 0x2b, 0x02, 0xd5, 0xf1, 0x3e, 0xed, 0x15, 0xd0, 0x22,
  0x11, 0xff, 0x04, 0x0e, 0xec, 0xd9, 0xf2, 0x00, 0x0c, 0xf6, 0xf9, 0x1d,
  0xec, 0xeb, 0x0d, 0x0e, 0xee, 0x26, 0xf7, 0xf8, 0x1c, 0x15, 0x0b, 0x26,
  0xde, 0x1b, 0x0a, 0xf4, 0xf9, 0xfa, 0xcf, 0x1b, 0x16, 0xf2, 0xed, 0x1d,
  0xd3, 0x2c, 0x25, 0x23, 0x00, 0xfb, 0xd3, 0xf1, 0x02, 0xed, 0xea, 0x24,
  0xe0, 0xef, 0x0d, 0xe9, 0x14, 0x2d, 0xbb, 0xec, 0x30, 0x35, 0xed, 0x06,
  0xfe, 0xd5, 0xd8, 0x21, 0xf2, 0x0b, 0xf6, 0xfa, 0x32, 0x19, 0xa1, 0x28,
  0xe3, 0xde, 0x3b, 0x2c, 0xde, 0xf2, 0xf7, 0xf6, 0x10, 0xdc, 0xe2, 0xf1,
  0xef, 0x02, 0x44, 0xfd, 0x1e, 0xe2, 0x05, 0xfb, 0x13, 0xcf, 0xd4, 0x2e,
  0xea, 0xdf, 0x2f, 0xd0, 0xe3, 0xd9, 0xe4, 0xf4, 0xed, 0xe1, 0xfc, 0x17,
  0xdc, 0xcf, 0xe5, 0xde, 0x07, 0x0f, 0xfa, 0xdf, 0x12, 0x1a, 0xd7, 0x15,
  0x15, 0xf1, 0x19, 0xd0, 0xed, 0xf9, 0x1c, 0xee, 0x2b, 0x14, 0xff, 0x18,
  0xd7, 0xca, 0xe7, 0xf4, 0x14, 0x0a, 0xea, 0x0e, 0xfa, 0x1b, 0x2d, 0xfc,
  0x1c, 0xed, 0x24, 0x1e, 0x1d, 0x03, 0x08, 0x1a, 0xba, 0xe2, 0x21, 0xe8,
  0xde, 0x16, 0xc0, 0xd6, 0x07, 0xd8, 0xe5, 0x04, 0xc1, 0xc4, 0x14, 0xfb,
  0xf7, 0xcb, 0xc6, 0xbb, 0xfc, 0xe4, 0x25, 0xcb, 0x12, 0xbb, 0x1b, 0x0a,
  0xbf, 0x21, 0xeb, 0xc4, 0x0a, 0x1c, 0xe4, 0x05, 0xcd, 0xd8, 0x31, 0x02,
  0xfc, 0x5f, 0xeb, 0xed, 0x2f, 0xf6, 0xdf, 0x19, 0xab, 0x14, 0x46, 0xdf,
  0xd2, 0x11, 0xc6, 0xf8, 0x23, 0xd1, 0x0d, 0x5a, 0xd4, 0x3c, 0x34, 0xe4,
  0xd6, 0x4c, 0xf6, 0xfc, 0x2c, 0xca, 0x11, 0x13, 0x35, 0x09, 0xf2, 0xe9,
  0xf9, 0x4b, 0x08, 0x2c, 0x36, 0xf7, 0xd4, 0x45, 0xff, 0x29, 0x20, 0x1f,
  0x0f, 0x5d, 0x22, 0x0b, 0x04, 0xef, 0xed, 0xef, 0x08, 0x22, 0xd9, 0xe1,
  0xf6, 0x34, 0x10, 0x12, 0xc9, 0xe5, 0xfa, 0xf2, 0x0e, 0xfa, 0xfe, 0x1c,
  0x2b, 0x1a, 0x0f, 0x3a, 0xf6, 0x29, 0xe6, 0x2d, 0x14, 0x0b, 0xd6, 0xca,
  0xe7, 0x0d, 0x0a, 0x07, 0x06, 0xf6, 0x2a, 0x39, 0xf9, 0xee, 0x1b, 0xfe,
  0x11, 0x2f, 0x00, 0x13, 0xf5, 0x05, 0xca, 0x37, 0x13, 0x25, 0x1d, 0xde,
  0x18, 0xfc, 0xf3, 0x1c, 0xd6, 0x03, 0x14, 0xfe, 0x1f, 0xd5, 0xf4, 0x05,
  0xff, 0x07, 0x18, 0xed, 0xcc, 0x0e, 0xf7, 0x4c, 0x3a, 0xcc, 0xe3, 0xf6,
  0x18, 0x36, 0x0f, 0xce, 0xfa, 0x2e, 0x00, 0xf5, 0x50, 0x0d, 0xdb, 0x37,
  0xd2, 0xef, 0x28, 0xe1, 0xf5, 0xff, 0x04, 0x0c, 0x59, 0x05, 0x1a, 0x11,
  0xe7, 0x21, 0x2f, 0x10, 0xd4, 0xfb, 0xfb, 0x2f, 0x2d, 0xf8, 0xf0, 0xe2,
  0x0f, 0x1a, 0x08, 0x06, 0x01, 0xec, 0xc3, 0x20, 0x0b, 0xea, 0x01, 0x06,
  0xfe, 0xe5, 0x23, 0xc2, 0xf5, 0xf7, 0xe6, 0xe6, 0x13, 0xbc, 0x1a, 0x21,
  0xe3, 0xeb, 0x15, 0x05, 0x15, 0x0d, 0x03, 0x12, 0x20, 0x05, 0x0f, 0xf7,
  0x15, 0xd6, 0x03, 0xb3, 0x32, 0xf3, 0xff, 0xd3, 0xd5, 0xac, 0x18, 0xfa,
  0xc7, 0xde, 0x31, 0xd6, 0x30, 0xf9, 0xed, 0x04, 0x10, 0xd0, 0x0e, 0xe0,
  0x24, 0x14, 0x19, 0xd4, 0xef, 0x00, 0x09, 0x0e, 0x01, 0xce, 0xed, 0x04,
  0x04, 0x06, 0x0f, 0xb5, 0xf7, 0xe3, 0x19, 0xfe, 0x33, 0xee, 0xd8, 0xcb,
  0x2c, 0x09, 0xfe, 0xeb, 0xda, 0xf3, 0xe9, 0xf0, 0x26, 0xe8, 0x0f, 0xcf,
  0xf1, 0x2b, 0xee, 0xe0, 0x11, 0xd2, 0xcc, 0x33, 0x22, 0xde, 0x0b, 0xe8,
  0x03, 0x02, 0x10, 0x25, 0xf4, 0x26, 0xed, 0x0b, 0xff, 0xf2, 0xf1, 0x04,
  0x1d, 0x20, 0xfc, 0xcd, 0x22, 0x05, 0x15, 0xd3, 0x0d, 0xeb, 0xef, 0xfe,
  0x30, 0x07, 0xf0, 0xf3, 0x02, 0x11, 0xe1, 0xe3, 0xef, 0xdd, 0xf8, 0xff,
  0x22, 0xe8, 0x0f, 0xe5, 0x03, 0xe7, 0x08, 0x32, 0xe9, 0x1d, 0x19, 0xfb,
  0xec, 0x0f, 0xec, 0x00, 0x19, 0xf7, 0x19, 0xf4, 0xd0, 0x1c, 0xd9, 0x22,
  0xf1, 0x17, 0x26, 0xd2, 0x29, 0x33, 0x10, 0xd8, 0xf3, 0xfb, 0xfd, 0xe4,
  0xf9, 0x17, 0xa3, 0x38, 0xd8, 0x01, 0x3c, 0x02, 0xc4, 0x32, 0x29, 0x0e,
  0xf4, 0x28, 0xf3, 0x14, 0x07, 0x44, 0x05, 0x44, 0xc1, 0xee, 0xdc, 0x1b,
  0x27, 0x15, 0xd0, 0x07, 0x03, 0x26, 0x18, 0x2d, 0xc7, 0x24, 0xf6, 0x03,
  0x1f, 0xfd, 0xe8, 0x01, 0x0f, 0x05, 0x34, 0x15, 0xe8, 0xe1, 0x06, 0xfe,
  0x1f, 0x16, 0xde, 0x23, 0x0a, 0xfc, 0x2b, 0x37, 0xbc, 0x04, 0x1b, 0xf1,
  0x10, 0x33, 0xf6, 0xfc, 0xfb, 0x0f, 0x0a, 0x06, 0x14, 0x2f, 0xdf, 0x14,
  0x19, 0x02, 0xd8, 0x2f, 0x2a, 0xd1, 0x15, 0x09, 0xf6, 0x2a, 0xfa, 0x10,
  0xc1, 0xda, 0x05, 0x0e, 0x1c, 0xf7, 0x03, 0xc3, 0xe3, 0xff, 0x07, 0x25,
  0x0e, 0xda, 0xf6, 0x11, 0xfa, 0xeb, 0xe9, 0xcf, 0xdd, 0x0e, 0x04, 0xee,
  0x0a, 0xef, 0x04, 0x14, 0x28, 0xf4, 0xe5, 0x1b, 0x0e, 0xff, 0x1f, 0xd9,
  0xde, 0x35, 0x0f, 0xde, 0x27, 0xff, 0xf0, 0xe4, 0xfa, 0x23, 0xf6, 0xf2,
  0x0b, 0x32, 0x0a, 0xc9, 0xff, 0x0d, 0x11, 0xe1, 0xea, 0x1a, 0x19, 0xfe,
  0x30, 0x19, 0xf2, 0x1d, 0xef, 0xea, 0xf3, 0x08, 0xfb, 0x1d, 0xfe, 0xe5,
  0x0b, 0xf6, 0xd9, 0x14, 0xf7, 0xfe, 0xea, 0xef, 0xfc, 0x15, 0xf9, 0xd3,
  0x28, 0x27, 0x16, 0x1b, 0x36, 0xf3, 0x12, 0xe3, 0x01, 0xcb, 0xf9, 0x01,
  0x1f, 0x18, 0x22, 0x0a, 0x1e, 0xf2, 0xff, 0xf1, 0x04, 0xfd, 0xf9, 0x23,
  0x35, 0xed, 0x0e, 0xd8, 0xdc, 0xf5, 0xea, 0xd3, 0xfb, 0x23, 0xda, 0xe7,
  0x2c, 0xe9, 0x07, 0xfd, 0x13, 0xf3, 0xed, 0x04, 0x00, 0x07, 0xcb, 0x06,
  0x39, 0xdb, 0x14, 0xde, 0xdf, 0x0c, 0x2b, 0xee, 0xfc, 0x0c, 0xec, 0xf0,
  0xf3, 0x31, 0x07, 0x06, 0x0f, 0x12, 0xef, 0xfa, 0xfb, 0xfa, 0x07, 0x1c,
  0x10, 0x0d, 0xdb, 0x14, 0x37, 0x30, 0x29, 0x30, 0x07, 0x1d, 0x3c, 0x13,
  0x37, 0x0e, 0xdb, 0xc6, 0xe1, 0x06, 0xea, 0x02, 0x09, 0xe2, 0x11, 0x04,
  0x1b, 0x32, 0x0a, 0xf6, 0xef, 0xd5, 0xd6, 0xf7, 0x0f, 0xca, 0x10, 0xd9,
  0x2a, 0x2d, 0xd3, 0xe2, 0x27, 0x24, 0xfd, 0x27, 0x0b, 0xd9, 0x09, 0x11,
  0xe4, 0x06, 0x31, 0x02, 0x22, 0xe7, 0x05, 0x1d, 0x07, 0xee, 0x0b, 0x1e,
  0xfe, 0x33, 0xf0, 0xb5, 0x09, 0xf5, 0x05, 0xec, 0x13, 0xe5, 0xfb, 0x0c,
  0xdf, 0xff, 0xec, 0xd7, 0x05, 0x28, 0x01, 0xea, 0xee, 0xd9, 0xcd, 0xf9,
  0xe8, 0x11, 0x01, 0x07, 0x17, 0xec, 0xf8, 0x3c, 0x06, 0xce, 0xcb, 0xfe,
  0xdb, 0x24, 0x0f, 0x24, 0x10, 0x0f, 0x09, 0x27, 0xde, 0xd6, 0xe5, 0x39,
  0x1a, 0xef, 0x05, 0xc3, 0x2a, 0x03, 0x32, 0x10, 0x27, 0xea, 0xfb, 0xfb,
  0x2b, 0x1d, 0x33, 0xea, 0x25, 0xe6, 0x22, 0xec, 0x2e, 0x05, 0x0c, 0x15,
  0xd7, 0x3d, 0x24, 0x1c, 0x1b, 0xf6, 0x03, 0xf5, 0x29, 0xce, 0x12, 0xca,
  0x0d, 0xf4, 0xd1, 0xf7, 0x17, 0xdb, 0x04, 0xfe, 0xf0, 0xea, 0x0a, 0xee,
  0xf4, 0xe5, 0xf7, 0xe8, 0x2d, 0x09, 0xe6, 0x2a, 0x17, 0xdc, 0x01, 0x16,
  0xf6, 0x16, 0x15, 0x07, 0x21, 0xf0, 0xda, 0x17, 0x05, 0x09, 0x18, 0xfd,
  0xd0, 0x3a, 0xe6, 0x1a, 0x1b, 0xed, 0xd2, 0x37, 0x04, 0xe0, 0xfa, 0x0b,
  0x1d, 0x45, 0x00, 0xe3, 0x10, 0xc8, 0xf3, 0x12, 0xdd, 0xea, 0x04, 0xe7,
  0x08, 0x1d, 0x07, 0xf9, 0xe0, 0xed, 0x2f, 0x23, 0xca, 0xef, 0x0e, 0xe1,
  0x04, 0x22, 0xe8, 0xf9, 0x17, 0xf9, 0x28, 0x2a, 0xe2, 0x08, 0xf3, 0xf7,
  0x07, 0xec, 0xd6, 0x25, 0xf9, 0x19, 0x1f, 0x0e, 0xcb, 0xf8, 0xea, 0x3e,
  0x12, 0xe1, 0x37, 0x28, 0xbd, 0x49, 0xe0, 0x04, 0x42, 0x52, 0xf5, 0x4e,
  0x1c, 0xea, 0x20, 0xde, 0x25, 0x17, 0xf5, 0x0e, 0x2b, 0xf8, 0xeb, 0x3d,
  0x16, 0x16, 0x2d, 0x0c, 0xf2, 0x02, 0x10, 0x0c, 0x20, 0xf5, 0xca, 0x18,
  0x04, 0xe2, 0x3f, 0x15, 0x2b, 0x0a, 0x0a, 0xd3, 0x27, 0xd3, 0x09, 0x12,
  0xdc, 0xf4, 0xfd, 0xfc, 0x02, 0xed, 0xfa, 0xf3, 0xe8, 0xbc, 0x06, 0xdf,
  0x19, 0xf2, 0x33, 0xce, 0x05, 0x01, 0x0c, 0x1a, 0x24, 0x09, 0x33, 0x0c,
  0xec, 0xff, 0xf2, 0x00, 0x36, 0x18, 0xfd, 0x10, 0x08, 0x04, 0xff, 0xeb,
  0xf2, 0xef, 0xeb, 0x00, 0xf8, 0xe8, 0x11, 0xec, 0xd8, 0xfe, 0x38, 0x08,
  0x0e, 0xd4, 0x2d, 0xe8, 0xf7, 0xca, 0xfa, 0xff, 0xb6, 0xd1, 0x20, 0xd7,
  0xec, 0xfc, 0xe6, 0xd2, 0x04, 0xdd, 0xe5, 0xdf, 0xf1, 0xfd, 0x04, 0xf1,
  0xd1, 0x4f, 0x1f, 0xc8, 0x1f, 0xd5, 0xd7, 0x2d, 0xfe, 0xc1, 0x03, 0x1d,
  0xf9, 0x3d, 0x2c, 0xd5, 0x1b, 0xdf, 0x0d, 0x16, 0x32, 0xc8, 0x18, 0xdd,
  0xd5, 0x16, 0x2d, 0xd0, 0xf4, 0xd7, 0x03, 0x18, 0xe5, 0xe3, 0xf7, 0xe5,
  0xf0, 0x0a, 0x20, 0xf2, 0x01, 0x03, 0x2b, 0x51, 0x32, 0xcc, 0xf4, 0xe5,
  0x34, 0x27, 0x2e, 0xeb, 0x07, 0xf3, 0x04, 0xfd, 0x0c, 0x00, 0x04, 0x09,
  0xd7, 0xfa, 0x07, 0x0a, 0xe3, 0xfe, 0xe2, 0x31, 0xf0, 0xf5, 0xe5, 0xf1,
  0x25, 0x50, 0xf7, 0xe6, 0x15, 0xc8, 0x24, 0x23, 0x0f, 0xec, 0xd8, 0xf9,
  0x36, 0x13, 0x19, 0x11, 0x03, 0x13, 0x25, 0x30, 0x38, 0xda, 0xea, 0xd3,
  0x2f, 0x00, 0x42, 0x1d, 0xf0, 0xef, 0xee, 0xf0, 0xcb, 0x09, 0x02, 0xe6,
  0x0d, 0x2a, 0xf8, 0x1d, 0xf5, 0xea, 0xd3, 0x21, 0xe3, 0xf2, 0xdf, 0x09,
  0x0c, 0xd4, 0x17, 0xdc, 0xf6, 0xf2, 0xd1, 0xc8, 0x1d, 0x17, 0xd6, 0x05,
  0xf4, 0x81, 0x36, 0x01, 0xdc, 0xce, 0xe0, 0xe8, 0x33, 0x46, 0xda, 0xc8,
  0xc6, 0xec, 0x00, 0x0c, 0xd7, 0x0a, 0xdf, 0xa5, 0x1f, 0x18, 0xf1, 0xd1,
  0x02, 0x91, 0xe5, 0x0e, 0x12, 0x0f, 0xf6, 0x01, 0xc5, 0xdd, 0xee, 0xd9,
  0xe8, 0xd2, 0x25, 0x10, 0xe6, 0x00, 0xe4, 0xf0, 0x0d, 0xf2, 0xc8, 0x19,
  0xf9, 0xd1, 0xd2, 0x06, 0x29, 0xf9, 0x03, 0x12, 0xe5, 0xd3, 0xd8, 0x0b,
  0xbc, 0xf7, 0xfa, 0xfc, 0xcc, 0x07, 0xe3, 0x2a, 0xfb, 0x18, 0x05, 0xf9,
  0x08, 0xf6, 0xd1, 0xff, 0x0e, 0x08, 0xe1, 0x16, 0xee, 0xdf, 0xd3, 0x2b,
  0xfa, 0xf9, 0xca, 0xe7, 0xf2, 0xf3, 0xf1, 0xf9, 0xee, 0xbc, 0xfc, 0xf4,
  0x05, 0x05, 0x19, 0xdb, 0x24, 0x18, 0xcd, 0x1f, 0x06, 0xf1, 0xee, 0xe4,
  0x0b, 0x24, 0xd2, 0xe3, 0x1f, 0x2d, 0xcb, 0x4f, 0xc1, 0xe9, 0x0f, 0x0b,
  0xfa, 0x2c, 0xc6, 0xee, 0x14, 0x34, 0xd1, 0xf4, 0xf3, 0xec, 0x40, 0x17,
  0x2e, 0xfc, 0xcf, 0x20, 0xf9, 0x1f, 0x41, 0x20, 0xec, 0x0f, 0x0d, 0x1a,
  0xd8, 0x2c, 0x1b, 0x36, 0x3e, 0x02, 0xe8, 0x34, 0xfd, 0xff, 0x14, 0x26,
  0xf9, 0xfa, 0x0c, 0x29, 0x1d, 0xec, 0xdf, 0xef, 0x2c, 0x0e, 0xf7, 0xdf,
  0xd5, 0x3f, 0x09, 0xf1, 0x01, 0x18, 0xdd, 0x19, 0xd0, 0xd5, 0x02, 0x1e,
  0x26, 0x31, 0xeb, 0x16, 0xe9, 0xe9, 0xfd, 0x1d, 0xfe, 0x03, 0xed, 0xe1,
  0xf1, 0x05, 0x02, 0xed, 0xe3, 0xef, 0x4f, 0x07, 0x15, 0x2a, 0xdb, 0x30,
  0xe6, 0x2b, 0x07, 0x0a, 0x0d, 0xfa, 0x07, 0xf3, 0x26, 0x44, 0x30, 0xd7,
  0x03, 0x1d, 0xff, 0x41, 0xf6, 0x2b, 0xfb, 0x1c, 0xf5, 0x26, 0x0a, 0x0a,
  0xf0, 0x09, 0x15, 0x19, 0x12, 0xf1, 0xfd, 0x40, 0x48, 0x19, 0xeb, 0xea,
  0x04, 0xeb, 0x53, 0x28, 0xe7, 0xf2, 0xe4, 0x0a, 0x05, 0x21, 0xdd, 0xf4,
  0xd9, 0xee, 0x33, 0x24, 0xe2, 0xf8, 0xe2, 0x07, 0x13, 0x0e, 0xe5, 0xdc,
  0xb7, 0x09, 0xfa, 0xfb, 0xc3, 0xf3, 0xdc, 0xd5, 0x0d, 0x00, 0xde, 0xd8,
  0xd3, 0xb8, 0x2a, 0x10, 0xdc, 0x28, 0x19, 0x00, 0xf7, 0x3a, 0xd8, 0x0e,
  0xd9, 0x2c, 0xf2, 0x34, 0xd0, 0xfd, 0xf2, 0x0b, 0x14, 0xfa, 0xd1, 0x0d,
  0xf7, 0xfe, 0xfa, 0x1b, 0x00, 0x0c, 0xfc, 0xb8, 0x01, 0x04, 0xec, 0xf6,
  0xef, 0x01, 0x27, 0xf8, 0x1c, 0xd0, 0xd2, 0xff, 0x2a, 0x19, 0x22, 0x0b,
  0xb5, 0xe4, 0xff, 0x1e, 0x21, 0x21, 0xb7, 0x2e, 0x15, 0x01, 0x05, 0x03,
  0xe2, 0x00, 0x0f, 0x23, 0x2a, 0x02, 0xba, 0xce, 0xdc, 0xf8, 0xf3, 0x38,
  0x04, 0xe5, 0xed, 0x17, 0x0c, 0xf6, 0xf4, 0xe9, 0xf1, 0xd6, 0x2a, 0x6a,
  0xe7, 0x23, 0xe2, 0xf4, 0x2e, 0x2e, 0xf7, 0xff, 0xf9, 0xef, 0x48, 0x1c,
  0x13, 0x24, 0x11, 0xf1, 0x45, 0x11, 0x37, 0xf8, 0x13, 0xd3, 0x54, 0x00,
  0x05, 0x19, 0xdd, 0xf1, 0x30, 0xf0, 0xfd, 0x06, 0xf7, 0xe9, 0x1a, 0xfe,
  0xf2, 0x2a, 0xcc, 0xf7, 0x3f, 0x29, 0xe3, 0xcc, 0x3a, 0xe9, 0x17, 0x0f,
  0x11, 0xd6, 0xf6, 0xf2, 0xf6, 0x2e, 0x09, 0xab, 0x21, 0xee, 0x13, 0x20,
  0x02, 0xce, 0x1f, 0x11, 0x24, 0x2b, 0xca, 0xce, 0xe3, 0x03, 0xd3, 0x08,
  0xe0, 0xf9, 0x01, 0x26, 0x07, 0xfc, 0xf3, 0xfe, 0x10, 0x15, 0x16, 0xf5,
  0x05, 0xec, 0x24, 0x17, 0x03, 0xe9, 0xd7, 0xf8, 0xee, 0xd1, 0xfb, 0xeb,
  0xd7, 0xed, 0xeb, 0x0e, 0x01, 0xe8, 0xcb, 0x06, 0xfc, 0x03, 0x01, 0xed,
  0xec, 0xf2, 0x06, 0x0b, 0xf1, 0x4a, 0x20, 0xec, 0x05, 0x05, 0xf1, 0x12,
  0x06, 0xf9, 0x1e, 0xe1, 0xdf, 0x4d, 0x0b, 0xf9, 0x23, 0x03, 0xeb, 0x30,
  0x39, 0x37, 0xc9, 0xe6, 0x01, 0x2f, 0x28, 0xcc, 0xf7, 0xbb, 0xf1, 0x1a,
  0xf1, 0xbc, 0x29, 0xd2, 0x17, 0x0f, 0x09, 0xdf, 0x41, 0xf2, 0xef, 0xfa,
  0xeb, 0x05, 0xe2, 0xf7, 0x0e, 0x23, 0x0b, 0x9c, 0x31, 0xe5, 0xf3, 0xd2,
  0xfc, 0xc7, 0xed, 0xe4, 0x01, 0x02, 0xdf, 0x97, 0xec, 0x29, 0xff, 0x14,
  0xf0, 0xcb, 0x0a, 0x24, 0xef, 0xed, 0xd7, 0xef, 0xd8, 0x1e, 0x05, 0xde,
  0xce, 0xed, 0x01, 0xbf, 0xf8, 0xd8, 0xd1, 0xd2, 0xdd, 0xd2, 0x25, 0xe0,
  0xb8, 0xd5, 0x07, 0xf0, 0x2f, 0xdc, 0x00, 0xa0, 0xbc, 0xca, 0x1d, 0xbd,
  0x10, 0x9d, 0xf7, 0xd6, 0xea, 0x03, 0xf1, 0x95, 0xf8, 0xe9, 0xfd, 0x17,
  0x2b, 0x10, 0xf0, 0x05, 0x1e, 0xc7, 0x3b, 0xde, 0xd8, 0x0d, 0x2e, 0xf5,
  0x04, 0xca, 0xef, 0x06, 0x09, 0xf3, 0xd6, 0xf3, 0x0b, 0x14, 0xcb, 0xca,
  0xea, 0xce, 0xe7, 0xf3, 0xe6, 0xf2, 0xe0, 0xd8, 0xc1, 0x3b, 0x0c, 0xcf,
  0xe0, 0x27, 0xff, 0x1b, 0xe5, 0xd5, 0xda, 0xf0, 0x0b, 0x1a, 0xfa, 0x0b,
  0x13, 0xce, 0x22, 0x1f, 0xe0, 0x12, 0xdb, 0xf6, 0xfd, 0x06, 0x06, 0xfb,
  0xe5, 0x07, 0xee, 0x13, 0x21, 0xc3, 0xf9, 0xfc, 0xe4, 0x39, 0xbf, 0xd1,
  0xfd, 0xd6, 0xc3, 0xf0, 0x18, 0x2d, 0x10, 0xeb, 0xe4, 0x23, 0xd0, 0xe4,
  0xdf, 0xf5, 0xba, 0x1e, 0x21, 0xdd, 0xa6, 0xda, 0x24, 0xe1, 0xe6, 0xf0,
  0xd1, 0xf9, 0x23, 0x36, 0xfc, 0xe7, 0x1f, 0xbd, 0x48, 0xd1, 0xf6, 0xfe,
  0xda, 0xf5, 0x2a, 0x02, 0xf9, 0x03, 0xc3, 0xe4, 0x41, 0x06, 0xde, 0xfc,
  0x11, 0xea, 0x36, 0x25, 0xfb, 0x35, 0x1b, 0x2c, 0x0e, 0xf7, 0xe3, 0x0f,
  0xd9, 0x42, 0xdb, 0x38, 0x21, 0x45, 0x23, 0x18, 0x2e, 0x08, 0x00, 0x21,
  0xd6, 0x38, 0x18, 0x16, 0xf5, 0x14, 0xd1, 0xf7, 0x04, 0xec, 0x2d, 0x46,
  0xe7, 0xf4, 0xea, 0xd5, 0x0a, 0x17, 0xd8, 0xfe, 0x14, 0xca, 0xf2, 0x35,
  0x05, 0x27, 0xea, 0xdb, 0x02, 0x1e, 0x26, 0xf7, 0x1c, 0x00, 0x03, 0xf7,
  0x1e, 0xcc, 0xe2, 0x0c, 0xf6, 0x02, 0x03, 0xd3, 0xff, 0x14, 0x29, 0x30,
  0xf8, 0x06, 0x1c, 0x17, 0x18, 0xee, 0x09, 0xe3, 0xd3, 0x1a, 0x13, 0x18,
  0x14, 0xfc, 0x16, 0x13, 0x2f, 0xd5, 0xdc, 0xe0, 0x0d, 0xfc, 0xf6, 0x05,
  0xe7, 0xec, 0xf5, 0xd1, 0x12, 0xf4, 0xc0, 0xd0, 0xf5, 0xf1, 0xea, 0xff,
  0x16, 0xcf, 0xde, 0xde, 0xf4, 0xe8, 0xcb, 0xd7, 0x30, 0x04, 0xee, 0xf3,
  0x28, 0xfb, 0x15, 0xe9, 0xf1, 0xfa, 0x23, 0x0e, 0xe0, 0xd2, 0xf0, 0x1f,
  0x0b, 0x1d, 0xfa, 0xd8, 0x0e, 0x11, 0xf1, 0xf3, 0xb0, 0xf2, 0x19, 0xe2,
  0x0c, 0x20, 0xcc, 0xff, 0x1b, 0x05, 0x00, 0x34, 0xef, 0xe6, 0x0e, 0xf8,
  0xbc, 0x15, 0xf2, 0x00, 0x01, 0xf1, 0x06, 0x43, 0x12, 0x17, 0xef, 0x0b,
  0x20, 0x06, 0x1c, 0xd6, 0x05, 0xf5, 0xf1, 0x0f, 0xe5, 0x04, 0x17, 0x06,
  0xd7, 0x0e, 0xf7, 0xf2, 0x1e, 0x0b, 0xc3, 0xf6, 0xf9, 0x07, 0xf0, 0x08,
  0xdd, 0x1d, 0xed, 0x32, 0x18, 0xde, 0xf2, 0x14, 0x0a, 0xfb, 0xd1, 0xe6,
  0xfe, 0x05, 0xe8, 0x24, 0xe1, 0xed, 0xe8, 0x26, 0xff, 0x35, 0xd9, 0x15,
  0xec, 0x2a, 0x09, 0x2c, 0xc4, 0xfe, 0x03, 0x11, 0xe0, 0x12, 0x2f, 0x40,
  0x0e, 0xfc, 0x23, 0x14, 0x01, 0x1e, 0x08, 0x27, 0xca, 0x2d, 0xf0, 0xfe,
  0xde, 0x0e, 0x02, 0xea, 0x1a, 0xbf, 0xd2, 0x12, 0x51, 0xfc, 0x21, 0xeb,
  0x15, 0x0f, 0x07, 0x28, 0x38, 0xbc, 0xe8, 0x1c, 0x3f, 0xfb, 0x14, 0x99,
  0xda, 0xf8, 0x0b, 0x3b, 0x3f, 0x04, 0xe8, 0xdc, 0xfb, 0xfd, 0x36, 0xf9,
  0xc5, 0xe3, 0xd4, 0x16, 0x1c, 0xee, 0x20, 0x20, 0xdd, 0x18, 0x29, 0x1d,
  0x07, 0xed, 0x0c, 0xf3, 0x36, 0xe7, 0x03, 0x14, 0xd5, 0x24, 0x09, 0x13,
  0xdb, 0x15, 0x0c, 0x2d, 0xf9, 0xfc, 0xe1, 0x40, 0xd8, 0xe0, 0xf6, 0x07,
  0x00, 0x0c, 0xe0, 0x25, 0xd2, 0x1e, 0xc7, 0x23, 0x2a, 0xda, 0xf9, 0xfd,
  0xc3, 0xf9, 0x06, 0x15, 0xcd, 0xea, 0xf1, 0x0a, 0x0b, 0x3d, 0xda, 0x0f,
  0xd7, 0x18, 0xf5, 0x0e, 0x0c, 0xf0, 0xd0, 0x43, 0x24, 0x54, 0xef, 0x17,
  0xfb, 0x0b, 0x17, 0xf7, 0x00, 0xe8, 0x08, 0x45, 0x26, 0xf3, 0xe1, 0x14,
  0x00, 0xf8, 0xcb, 0x29, 0x03, 0x3a, 0x09, 0x17, 0xcb, 0x31, 0xf2, 0x3e,
  0x13, 0x12, 0x9e, 0x05, 0xeb, 0x10, 0x1d, 0x31, 0xcf, 0x26, 0xf2, 0x1c,
  0x06, 0x07, 0xd7, 0x30, 0x28, 0x43, 0x14, 0x02, 0xc8, 0x27, 0xf0, 0x3a,
  0x28, 0x22, 0xf0, 0x25, 0x28, 0x19, 0xe1, 0x10, 0xea, 0x08, 0x17, 0x01,
  0x34, 0x16, 0xe2, 0xf7, 0x0c, 0x2a, 0xfa, 0x10, 0xdc, 0x34, 0xf2, 0xf0,
  0x21, 0xdd, 0x07, 0x30, 0xee, 0xf9, 0x17, 0xfe, 0xce, 0xe7, 0xdf, 0x09,
  0x29, 0xe7, 0xe8, 0x1d, 0x1d, 0x02, 0x08, 0xe9, 0xea, 0x1f, 0x02, 0xfd,
  0x38, 0xf9, 0xfd, 0xf9, 0x2b, 0x05, 0x29, 0x06, 0x03, 0x1a, 0x01, 0xf6,
  0x13, 0xf6, 0x10, 0x03, 0x25, 0x0f, 0x3b, 0xc5, 0x0e, 0xf5, 0x1d, 0x16,
  0x10, 0xdd, 0x1e, 0x2a, 0x04, 0x03, 0x08, 0xf9, 0x26, 0x04, 0x00, 0x00,
  0x25, 0xb3, 0x44, 0xe5, 0x1f, 0xfb, 0xf3, 0x1d, 0x34, 0x19, 0x0d, 0x02,
  0x0d, 0xe3, 0x19, 0xda, 0xd9, 0x2f, 0xea, 0x02, 0x06, 0xfa, 0x1b, 0x46,
  0xeb, 0x08, 0xdf, 0xf2, 0x1d, 0x18, 0x0b, 0x2b, 0x25, 0xf2, 0x18, 0xda,
  0xe3, 0x27, 0xf5, 0x0e, 0x0c, 0x26, 0x04, 0xfd, 0xec, 0xf9, 0xfa, 0xdb,
  0xe9, 0x43, 0xde, 0x10, 0x04, 0xd3, 0xdd, 0xf1, 0xd8, 0x18, 0x1d, 0x0c,
  0xfd, 0x08, 0xee, 0xed, 0x0d, 0xed, 0x0a, 0xd5, 0xd2, 0x0b, 0xf0, 0x1b,
  0xfb, 0xf9, 0x06, 0x14, 0xfc, 0xff, 0x08, 0xf0, 0xff, 0x13, 0x04, 0x20,
  0xee, 0x18, 0xe3, 0x0d, 0x2d, 0xff, 0xeb, 0xe9, 0x02, 0xf9, 0x1f, 0xd6,
  0x18, 0xf0, 0xfd, 0x11, 0x21, 0x2a, 0xe6, 0xf8, 0x13, 0xf4, 0x1e, 0xf4,
  0x03, 0xe0, 0xe9, 0x21, 0x2c, 0xf7, 0x26, 0xf9, 0xe7, 0xd2, 0x11, 0x15,
  0xfa, 0x07, 0x08, 0xf2, 0xe3, 0x13, 0xf7, 0xeb, 0xe2, 0xf3, 0x1e, 0xfd,
  0xfc, 0x2e, 0x03, 0xf8, 0xe9, 0xd4, 0xec, 0x22, 0xd0, 0x37, 0xca, 0xd6,
  0xc0, 0x13, 0xde, 0x14, 0xe8, 0xcf, 0xda, 0xf3, 0xe3, 0x07, 0xd2, 0xe9,
  0x1d, 0x03, 0xbc, 0x5a, 0x02, 0x0b, 0xd0, 0x16, 0x15, 0x1a, 0xf4, 0x07,
  0xe3, 0x0d, 0x12, 0x55, 0xf7, 0x09, 0x2c, 0x1e, 0x0c, 0x24, 0xd2, 0x27,
  0x17, 0x1d, 0x19, 0x15, 0x12, 0x14, 0x07, 0x0e, 0xe4, 0x1c, 0x15, 0xdd,
  0x28, 0x21, 0x0d, 0x2f, 0xea, 0x31, 0xfb, 0x0a, 0x1e, 0x12, 0x09, 0x1d,
  0xf1, 0x01, 0x09, 0x06, 0x15, 0xe1, 0x1e, 0xdf, 0x20, 0x3e, 0x30, 0xde,
  0xeb, 0xf6, 0x01, 0x1a, 0xec, 0x11, 0xf0, 0xdc, 0x3a, 0x03, 0x10, 0x39,
  0xf0, 0xe5, 0x44, 0x15, 0x0a, 0x12, 0xe4, 0x12, 0x0c, 0x30, 0xe5, 0x28,
  0x2f, 0x41, 0x0b, 0xf3, 0x18, 0xe0, 0xf5, 0x11, 0xf6, 0xf7, 0x09, 0xc9,
  0x0b, 0xd1, 0xe3, 0xfb, 0xdb, 0xd2, 0xd5, 0x0b, 0x1f, 0x08, 0x24, 0x11,
  0xf2, 0xfe, 0x12, 0xf9, 0xde, 0xdd, 0x1e, 0x25, 0xe3, 0xe1, 0x04, 0xe0,
  0x0c, 0xdd, 0x11, 0xf0, 0x33, 0x06, 0x18, 0xd0, 0xe7, 0x10, 0xe9, 0xd8,
  0x2a, 0x18, 0x1a, 0x12, 0xd2, 0xd3, 0x04, 0x40, 0x28, 0x14, 0xdc, 0xfa,
  0xf0, 0x1d, 0x01, 0x01, 0xfb, 0xee, 0xf7, 0xd8, 0xde, 0x33, 0x09, 0xf3,
  0x2c, 0xe1, 0x0d, 0xe5, 0xe4, 0xdb, 0x24, 0xf7, 0xea, 0xfa, 0xe9, 0x10,
  0x14, 0xd6, 0xfc, 0x17, 0xc8, 0xee, 0xf0, 0x16, 0x25, 0xd9, 0xfc, 0xea,
  0x0e, 0xf5, 0x01, 0x1e, 0xda, 0xe0, 0x0f, 0x27, 0xfe, 0xeb, 0xf2, 0xf7,
  0x2c, 0x05, 0x15, 0x00, 0xee, 0xf6, 0x0b, 0xfb, 0xfb, 0xe5, 0xeb, 0xf7,
  0xc4, 0x11, 0xba, 0xf9, 0x0f, 0x25, 0xe0, 0x16, 0xdf, 0x03, 0xfe, 0x3e,
  0xd5, 0x20, 0xe8, 0xf5, 0xec, 0x26, 0xf4, 0x55, 0xaa, 0xd5, 0xc6, 0x2e,
  0x39, 0x44, 0xd4, 0x1c, 0xe6, 0xd7, 0xf7, 0x07, 0xe4, 0xf2, 0xdd, 0xed,
  0xf5, 0x4e, 0x2c, 0xfe, 0xc5, 0xef, 0x06, 0x1b, 0xe4, 0xf7, 0xec, 0xf5,
  0x11, 0x0a, 0x33, 0xbd, 0xd6, 0x1d, 0x10, 0x69, 0x27, 0x17, 0xe0, 0x01,
  0xf4, 0x13, 0x18, 0xdc, 0xf3, 0x12, 0xf9, 0x3a, 0xef, 0x0a, 0xeb, 0xdf,
  0x1f, 0x02, 0x0e, 0xe7, 0xec, 0xee, 0x33, 0xdc, 0x14, 0x0e, 0x35, 0xf8,
  0xe9, 0x2f, 0x06, 0x29, 0x07, 0x18, 0xfa, 0xf0, 0x26, 0x01, 0x04, 0xe4,
  0xf2, 0x11, 0xe9, 0x2d, 0xe6, 0xe3, 0xf5, 0x11, 0x3b, 0x0b, 0x09, 0xd6,
  0xd3, 0xf9, 0x34, 0xf2, 0x2a, 0x1b, 0xfe, 0xdb, 0x1e, 0x1f, 0xe3, 0xc8,
  0xdf, 0xbe, 0xe6, 0xf7, 0xe5, 0x20, 0xbc, 0xd1, 0xe9, 0x10, 0xef, 0x2c,
  0xdf, 0xa8, 0xc4, 0xfb, 0xfb, 0x07, 0x0d, 0xa1, 0xf6, 0xfd, 0xe2, 0x0f,
  0x00, 0xd4, 0xfc, 0x04, 0x0e, 0x0a, 0xf6, 0xc0, 0xea, 0xe6, 0xfb, 0xfe,
  0x27, 0xcf, 0xb2, 0x04, 0xb0, 0x26, 0x1e, 0xdc, 0xf9, 0xe5, 0xdc, 0x18,
  0x1d, 0xa6, 0xc2, 0xf6, 0x13, 0xd5, 0x17, 0xc2, 0xb6, 0xdb, 0xf0, 0x20,
  0x20, 0xe9, 0xc3, 0x23, 0x04, 0x17, 0x34, 0xdb, 0xc1, 0x1d, 0xe3, 0x1d,
  0x28, 0xda, 0xc5, 0x03, 0xef, 0x06, 0x04, 0xf6, 0xe3, 0xe4, 0xca, 0x38,
  0x48, 0xf5, 0xe2, 0x22, 0x12, 0xe5, 0x45, 0x11, 0xaa, 0xe1, 0xfc, 0x10,
  0x20, 0x33, 0xde, 0x00, 0xf4, 0xf0, 0x31, 0x30, 0xf0, 0x02, 0xf7, 0x18,
  0x32, 0x26, 0x02, 0x0d, 0xf5, 0x15, 0x1b, 0x2b, 0xe0, 0xff, 0x0a, 0xe7,
  0x08, 0xe9, 0xfd, 0xf8, 0xd6, 0x09, 0xf0, 0xee, 0x07, 0xed, 0x0d, 0x22,
  0x29, 0x0d, 0x2c, 0x15, 0xfc, 0x03, 0x02, 0xf3, 0xf4, 0x16, 0x0d, 0xf8,
  0x27, 0x18, 0x04, 0xf5, 0xd5, 0x1a, 0xfe, 0xff, 0xfd, 0xfa, 0xf0, 0x0a,
  0xfd, 0xf6, 0xe4, 0xeb, 0xf2, 0x29, 0x29, 0xc1, 0x3b, 0x01, 0xf5, 0x1d,
  0xec, 0x01, 0x2e, 0x05, 0xc5, 0x36, 0x04, 0xeb, 0x02, 0xf0, 0xd8, 0x26,
  0xfd, 0x18, 0x0e, 0xe0, 0x2d, 0x25, 0x0a, 0xfc, 0xfb, 0x23, 0xe6, 0x1e,
  0x07, 0x17, 0x01, 0x06, 0x02, 0x17, 0xd9, 0xf0, 0x01, 0xed, 0x07, 0xeb,
  0xdc, 0x08, 0xf4, 0xec, 0xfc, 0xf5, 0x30, 0x03, 0x16, 0xbf, 0x20, 0x1d,
  0xe4, 0x1e, 0xcb, 0x00, 0x0f, 0xfc, 0x0d, 0x15, 0xf5, 0xf7, 0x2a, 0xeb,
  0x04, 0x0d, 0x0a, 0xe9, 0x26, 0x02, 0xd8, 0x17, 0xfe, 0x0d, 0x25, 0xd0,
  0x16, 0x09, 0xc9, 0x16, 0xe4, 0xe3, 0xd5, 0xf5, 0xf4, 0x29, 0x2a, 0xc4,
  0xee, 0x20, 0x07, 0x00, 0xe1, 0x04, 0x14, 0x12, 0xe8, 0x3f, 0x0a, 0x00,
  0xd6, 0xda, 0xb0, 0x18, 0xe6, 0xef, 0xe6, 0x2d, 0x01, 0x18, 0x0a, 0xfd,
  0x03, 0x34, 0xe2, 0x03, 0x22, 0xc4, 0xfe, 0x39, 0x05, 0x38, 0x0f, 0xe7,
  0xfa, 0xe5, 0x29, 0xf3, 0xdf, 0xc1, 0xde, 0x0e, 0x10, 0xea, 0xe9, 0xf8,
  0xec, 0x35, 0xd8, 0xfe, 0x1a, 0xd1, 0xec, 0xfb, 0x04, 0x25, 0xec, 0x14,
  0xe8, 0x0a, 0x2e, 0xf9, 0xe2, 0xfb, 0xdb, 0x02, 0xf1, 0x18, 0xfa, 0x0e,
  0xfd, 0x16, 0x11, 0xe5, 0x12, 0x19, 0x26, 0x23, 0x13, 0x17, 0xf5, 0x08,
  0xb6, 0xf0, 0xe9, 0x2f, 0x04, 0xe3, 0xff, 0xfc, 0x36, 0x37, 0xe9, 0x1c,
  0x04, 0x0c, 0x3e, 0x2d, 0x1d, 0xe4, 0xe9, 0x02, 0xef, 0xff, 0x30, 0xe8,
  0xf6, 0xb3, 0xf1, 0xf4, 0x1a, 0x21, 0xc1, 0xca, 0x05, 0xfd, 0xfc, 0x20,
  0xdb, 0xf8, 0x08, 0x38, 0xf0, 0xfd, 0x1b, 0xf9, 0xde, 0x0c, 0x07, 0x17,
  0xda, 0x10, 0x0c, 0x15, 0xfc, 0xfa, 0xed, 0xff, 0x05, 0x10, 0xc0, 0xf3,
  0xf7, 0xfc, 0x26, 0x19, 0xf9, 0x0a, 0xe6, 0x19, 0x11, 0x03, 0x02, 0xf4,
  0x0a, 0xde, 0xff, 0xda, 0xfa, 0x09, 0x02, 0xf0, 0xd6, 0xfa, 0xcc, 0x06,
  0xed, 0xcf, 0x1e, 0xe5, 0xe9, 0x13, 0x16, 0xdb, 0xee, 0xed, 0x16, 0x0a,
  0x09, 0xf9, 0x23, 0xf9, 0x1e, 0x30, 0xe9, 0xf8, 0xe7, 0x29, 0xf0, 0x1e,
  0xfa, 0x08, 0xfa, 0xd4, 0xed, 0x23, 0xca, 0xd2, 0x23, 0x1a, 0x20, 0xe2,
  0xdf, 0xc1, 0x13, 0xfb, 0x0f, 0x27, 0xc0, 0x28, 0xe5, 0xe2, 0x18, 0xe3,
  0x0b, 0xf0, 0xf1, 0xf6, 0xe5, 0xe8, 0xe2, 0xc0, 0x18, 0xed, 0xe3, 0xf4,
  0x0f, 0x1d, 0xf8, 0x0b, 0x06, 0x28, 0xde, 0xed, 0xe8, 0xef, 0x1e, 0x26,
  0x29, 0x13, 0x25, 0x16, 0x07, 0x08, 0x07, 0x24, 0xf1, 0xed, 0x1c, 0xfd,
  0xf0, 0xf2, 0xee, 0x2f, 0x14, 0xe0, 0xf3, 0xf1, 0x04, 0xed, 0xf9, 0x0e,
  0xf8, 0x06, 0x22, 0xf9, 0x14, 0xf2, 0xef, 0x29, 0x08, 0xfa, 0x05, 0xe9,
  0xe1, 0xee, 0xfb, 0x1b, 0xef, 0xf8, 0xf4, 0x04, 0x38, 0x03, 0xdb, 0xe1,
  0xfb, 0xe6, 0x01, 0x11, 0xda, 0x3b, 0x3b, 0x19, 0x18, 0x27, 0xfd, 0xfa,
  0x01, 0xdd, 0x19, 0x01, 0xd3, 0x11, 0x15, 0x31, 0xdf, 0x14, 0x2a, 0x14,
  0x06, 0xe2, 0xf3, 0xe1, 0xf5, 0x18, 0xeb, 0xdd, 0x19, 0x15, 0x32, 0xea,
  0xd7, 0x0e, 0xfb, 0x23, 0x00, 0xf7, 0x09, 0xdc, 0xf2, 0x27, 0xeb, 0x07,
  0x14, 0xeb, 0x10, 0x36, 0xfb, 0x1c, 0xe6, 0x29, 0xf2, 0x08, 0xec, 0xfb,
  0x1f, 0xef, 0x40, 0xe8, 0xd7, 0xf5, 0x09, 0xfe, 0x4c, 0xf7, 0x0d, 0x0d,
  0x17, 0x0f, 0x21, 0xfb, 0xfd, 0x0c, 0x0f, 0xdd, 0xee, 0x0d, 0x24, 0x22,
  0xf3, 0xf4, 0xff, 0xf3, 0x2e, 0x1e, 0x09, 0xfd, 0xf3, 0x00, 0x21, 0x1e,
  0xd6, 0x22, 0xf8, 0xeb, 0xeb, 0x07, 0xdc, 0xe2, 0xd2, 0x02, 0x35, 0x01,
  0xd6, 0x03, 0xdb, 0xfb, 0x25, 0x06, 0xfa, 0xd0, 0xd0, 0xe6, 0x07, 0x39,
  0xf6, 0x1d, 0xd1, 0x02, 0x27, 0x2e, 0xc6, 0xd9, 0xd4, 0xe4, 0x1a, 0xf3,
  0x08, 0x05, 0x05, 0x10, 0x0b, 0xea, 0xf4, 0x09, 0xca, 0x06, 0xd5, 0x0c,
  0x0c, 0xf5, 0xf7, 0x02, 0x0f, 0x25, 0x06, 0x13, 0x0a, 0x04, 0xcd, 0x1f,
  0x1e, 0xfa, 0xe3, 0xef, 0x21, 0x2b, 0xf9, 0x03, 0xe2, 0x0f, 0xe1, 0x18,
  0x22, 0xb9, 0xff, 0x13, 0x25, 0x04, 0x2e, 0x05, 0xff, 0xea, 0x22, 0xe0,
  0x07, 0xd7, 0xeb, 0x0b, 0x33, 0x1e, 0xdf, 0x2d, 0xec, 0x1a, 0x22, 0x0f,
  0xf6, 0x2d, 0xe4, 0xe1, 0x1f, 0xfb, 0x0e, 0x18, 0xd9, 0xe9, 0x11, 0x29,
  0x0b, 0x34, 0x23, 0xd4, 0xfb, 0x1f, 0xf9, 0xfd, 0x20, 0xe9, 0xea, 0xcd,
  0x32, 0xed, 0x1d, 0x05, 0x36, 0x0a, 0x15, 0xd2, 0x0f, 0xf8, 0xfe, 0xf5,
  0x23, 0x1b, 0xf5, 0x15, 0x0c, 0xfb, 0xf4, 0xd7, 0x16, 0xf4, 0x3b, 0x0d,
  0xe4, 0x10, 0x30, 0x0f, 0x05, 0x20, 0x00, 0x0a, 0x08, 0x05, 0xea, 0xf8,
  0xf3, 0x00, 0xf0, 0x0e, 0xd0, 0xd4, 0xe5, 0xc4, 0x40, 0x10, 0xf4, 0xd1,
  0xf4, 0xea, 0x06, 0x01, 0xd5, 0xc1, 0xdd, 0xe8, 0x15, 0xf4, 0x13, 0xea,
  0x09, 0xde, 0x27, 0xfb, 0xdd, 0x18, 0xd8, 0xcf, 0x29, 0xf0, 0x11, 0xdb,
  0xec, 0xee, 0x02, 0x24, 0xf8, 0x0b, 0xc1, 0xe0, 0xf2, 0xf4, 0xf4, 0xf6,
  0xe5, 0x46, 0x1b, 0xf0, 0x0e, 0x1a, 0xb7, 0x0f, 0x3c, 0xde, 0x24, 0x00,
  0xfe, 0x23, 0x33, 0xbe, 0x26, 0x14, 0xd2, 0x2f, 0x19, 0xe0, 0x0b, 0x1c,
  0xee, 0x1c, 0x3a, 0x1e, 0x1a, 0x16, 0x0d, 0x39, 0x15, 0x0d, 0xec, 0xe4,
  0xd6, 0xf9, 0x03, 0xf2, 0x0f, 0xff, 0xeb, 0xf0, 0x38, 0xce, 0xe0, 0xf0,
  0xdc, 0x00, 0x0b, 0xf5, 0x0b, 0xf0, 0xc1, 0x03, 0x0a, 0xde, 0xe8, 0x16,
  0xf7, 0xf5, 0x12, 0x12, 0xf4, 0xcc, 0xf3, 0xfb, 0x02, 0xca, 0x17, 0xf7,
  0x04, 0xf9, 0xdb, 0xcc, 0xd9, 0x1d, 0xe3, 0x03, 0x03, 0xdf, 0x0c, 0xf7,
  0xe7, 0x0f, 0x06, 0xc8, 0xd7, 0xf6, 0x17, 0xc4, 0xfd, 0xd1, 0xf4, 0xc5,
  0xec, 0x24, 0x22, 0xf8, 0x1f, 0x2a, 0xf3, 0xb9, 0xdf, 0x01, 0x27, 0xe9,
  0xee, 0x14, 0xea, 0xfa, 0xfb, 0xd8, 0xd7, 0x12, 0xea, 0x14, 0xe1, 0xf2,
  0x19, 0x0a, 0x0e, 0x06, 0x31, 0xf5, 0x1d, 0x39, 0x21, 0xe7, 0x21, 0xc2,
  0x0c, 0xdf, 0xda, 0x09, 0xf3, 0xd6, 0x18, 0x22, 0x03, 0xe6, 0x24, 0x12,
  0x22, 0xec, 0x06, 0xba, 0x1b, 0x23, 0x10, 0x0b, 0xfe, 0xe8, 0xca, 0x03,
  0x05, 0x30, 0x1c, 0xe5, 0x0b, 0xe9, 0xd0, 0x3b, 0xf7, 0xed, 0xca, 0x38,
  0x04, 0xfc, 0x13, 0xd6, 0x18, 0x12, 0x37, 0xfa, 0x36, 0xe3, 0xff, 0x10,
  0x39, 0x03, 0x36, 0xeb, 0xf7, 0xea, 0x22, 0xff, 0x0c, 0xef, 0xda, 0x1f,
  0xeb, 0xe1, 0xe0, 0xf4, 0x11, 0x23, 0x35, 0xb8, 0x36, 0x1b, 0x11, 0x0d,
  0xe0, 0xf3, 0x1b, 0xff, 0xdf, 0x07, 0x38, 0xe4, 0x0a, 0x2d, 0x04, 0xe6,
  0x19, 0xfc, 0x06, 0x06, 0x0e, 0xf8, 0xdd, 0xf1, 0xf5, 0xe5, 0x12, 0x0d,
  0x07, 0xf8, 0x17, 0x10, 0xf8, 0xfc, 0xf2, 0xf8, 0xf9, 0x1d, 0x29, 0xd4,
  0xdd, 0xff, 0xf7, 0xbd, 0x24, 0x2c, 0xe5, 0xf9, 0xfc, 0xec, 0x45, 0x24,
  0xf3, 0x2d, 0x04, 0xef, 0x3f, 0xe4, 0xe8, 0xde, 0x17, 0xd5, 0x12, 0xf2,
  0x14, 0x1b, 0xfa, 0xe5, 0x3d, 0xfa, 0x0e, 0x0e, 0xda, 0xf5, 0x49, 0xf8,
  0x09, 0x1b, 0x1d, 0xec, 0x33, 0x08, 0x43, 0xfe, 0xe4, 0xd0, 0x32, 0xf9,
  0xf4, 0x3c, 0xfa, 0x10, 0xf6, 0xde, 0xe0, 0xdd, 0xe4, 0xcd, 0x1a, 0xeb,
  0xcb, 0x0b, 0xd8, 0x0d, 0x0d, 0x1d, 0x0e, 0x06, 0x0c, 0xf5, 0x18, 0xca,
  0x2d, 0x09, 0xf7, 0x04, 0xf5, 0x13, 0x0a, 0x10, 0xee, 0xe9, 0x01, 0x14,
  0x13, 0x2c, 0x0d, 0xe4, 0xf2, 0x12, 0x3c, 0x0c, 0x1b, 0x0e, 0xdc, 0x30,
  0x29, 0x22, 0x34, 0xe8, 0xf8, 0xeb, 0x0f, 0xed, 0x1d, 0x09, 0x2e, 0x15,
  0x39, 0x11, 0xec, 0xed, 0x19, 0xf3, 0x22, 0x34, 0x17, 0xf2, 0xe1, 0xe2,
  0x01, 0x24, 0x2b, 0xd2, 0xcb, 0xd2, 0xfe, 0xf1, 0x53, 0x11, 0xf1, 0xa6,
  0x1b, 0x17, 0x47, 0xd7, 0xd9, 0xbe, 0xf4, 0x11, 0xf9, 0x0e, 0xaf, 0xe1,
  0xcb, 0xd1, 0x0d, 0xf6, 0xe3, 0xea, 0xd3, 0xd8, 0x39, 0xce, 0xe1, 0xfd,
  0xb8, 0xd4, 0x4a, 0xbb, 0xf2, 0xd8, 0xe1, 0xe1, 0x4a, 0x12, 0xe6, 0xfa,
  0xde, 0xbe, 0x51, 0xf9, 0xb2, 0x14, 0xdf, 0xf3, 0x51, 0x4b, 0xe3, 0xf4,
  0x2c, 0x15, 0x04, 0x1f, 0xd7, 0x1c, 0xc0, 0x19, 0xfa, 0x28, 0x0b, 0x22,
  0xc7, 0x0f, 0x2d, 0xea, 0xeb, 0x17, 0xe9, 0x9d, 0xef, 0x1c, 0x05, 0x09,
  0xe8, 0x0e, 0xdc, 0x15, 0xcb, 0x15, 0xca, 0xd5, 0x35, 0x3b, 0x1e, 0x1f,
  0xd5, 0x15, 0x0c, 0x29, 0xfc, 0x0f, 0xda, 0x0c, 0x18, 0x07, 0xc6, 0xe7,
  0xcf, 0xcb, 0x10, 0x11, 0x0c, 0xfe, 0xbb, 0xa8, 0x2f, 0x11, 0x06, 0x02,
  0xe7, 0xa9, 0x15, 0xf3, 0x24, 0x3c, 0xc7, 0xea, 0x31, 0xe7, 0x2c, 0xf9,
  0xe1, 0xef, 0xf3, 0x07, 0x23, 0xea, 0xce, 0xf0, 0x16, 0xfd, 0xf1, 0x51,
  0xf9, 0xf8, 0x0f, 0x16, 0xf6, 0x38, 0xf5, 0xf8, 0x09, 0x29, 0x19, 0xfd,
  0xd2, 0xe4, 0x24, 0x27, 0xf8, 0x2d, 0xed, 0xe4, 0xf4, 0x0c, 0xf3, 0x3f,
  0xf0, 0xeb, 0xc4, 0x1c, 0x0f, 0xfd, 0xd8, 0xab, 0x10, 0x0c, 0x19, 0x1f,
  0x01, 0xbf, 0x09, 0xf7, 0xe9, 0x06, 0xee, 0xf6, 0xf3, 0xef, 0x16, 0xe9,
  0xed, 0xea, 0xe4, 0xed, 0xed, 0xe3, 0x17, 0xff, 0xd9, 0x20, 0x1d, 0x11,
  0x0d, 0x09, 0x05, 0x07, 0x06, 0x24, 0xfb, 0xf2, 0xfe, 0x1e, 0xf7, 0xed,
  0x09, 0x13, 0x25, 0x2c, 0x01, 0x09, 0xd6, 0x07, 0xf5, 0xf0, 0xd6, 0xd5,
  0xf0, 0x05, 0x03, 0x11, 0x1c, 0xfb, 0x0d, 0x1e, 0xd4, 0x24, 0x0c, 0xfa,
  0xf7, 0xe0, 0x1b, 0xf0, 0xf9, 0x10, 0xb7, 0x07, 0xe2, 0x31, 0xf4, 0xf6,
  0x12, 0x45, 0xfb, 0xeb, 0x14, 0x39, 0xea, 0x06, 0xd9, 0x06, 0x25, 0xeb,
  0x1b, 0x05, 0xd0, 0x1b, 0x04, 0x10, 0x38, 0x34, 0xfe, 0x28, 0x14, 0x14,
  0x08, 0x3e, 0xdd, 0x14, 0xea, 0xfc, 0xf1, 0x05, 0x0e, 0xe3, 0xd9, 0x0c,
  0x07, 0x02, 0x05, 0xf3, 0x0d, 0x03, 0xce, 0x08, 0xf8, 0x0d, 0xdb, 0x1a,
  0x19, 0x03, 0x00, 0xf1, 0x0a, 0xed, 0xdc, 0x2b, 0xd5, 0x28, 0xe2, 0x1d,
  0xd6, 0x1a, 0x20, 0x17, 0xf8, 0x07, 0x0d, 0x13, 0xfe, 0xed, 0xf9, 0x09,
  0xf8, 0x22, 0xe4, 0x28, 0x09, 0xe2, 0xe6, 0xc8, 0x0a, 0x24, 0x01, 0xd6,
  0x03, 0xc1, 0xe7, 0x0d, 0xf5, 0xe3, 0x1d, 0xfb, 0xf8, 0x0c, 0x18, 0x16,
  0xf8, 0xf9, 0xf7, 0xff, 0xe7, 0x08, 0x1e, 0x23, 0x0c, 0x4e, 0x10, 0x19,
  0x21, 0x03, 0x3d, 0xe3, 0x24, 0x35, 0x01, 0xfc, 0x31, 0xd4, 0x08, 0x35,
  0xdb, 0x4a, 0xec, 0xe1, 0x27, 0x15, 0xd5, 0x3c, 0x0b, 0xf3, 0x2f, 0x11,
  0xdd, 0x1a, 0xfc, 0xf6, 0x2b, 0x11, 0x2a, 0x20, 0xde, 0xfe, 0x16, 0xd4,
  0xff, 0x06, 0xe5, 0xfa, 0x59, 0xcb, 0xf9, 0x32, 0xbc, 0xd1, 0x38, 0xe5,
  0xf7, 0x49, 0xd2, 0xf8, 0x1a, 0x0c, 0xf4, 0xda, 0xee, 0xf1, 0x32, 0x11,
  0xff, 0xd5, 0xaf, 0xe5, 0x16, 0xe8, 0xf9, 0xdf, 0xd1, 0xdc, 0xed, 0xdb,
  0x43, 0x07, 0xee, 0x02, 0x10, 0xf2, 0xea, 0x27, 0x0a, 0xbd, 0xf6, 0x05,
  0x14, 0xe0, 0x2a, 0xf4, 0xf8, 0xe4, 0x23, 0x03, 0x05, 0xc0, 0xda, 0x0c,
  0x41, 0xf3, 0x0b, 0x1c, 0xf2, 0x03, 0x0f, 0x0e, 0xf3, 0x0f, 0x18, 0x0f,
  0xfe, 0xd7, 0x23, 0x26, 0x06, 0x2d, 0x33, 0x2d, 0x0d, 0x01, 0x03, 0x01,
  0xcc, 0x1b, 0x1c, 0xfd, 0x0a, 0xba, 0xf0, 0x0f, 0x1c, 0xfe, 0xdf, 0x00,
  0xf8, 0x1d, 0x15, 0x31, 0x49, 0xdb, 0xf1, 0xf5, 0xe2, 0xfb, 0x01, 0xcc,
  0x0e, 0x0b, 0xfa, 0x4b, 0x14, 0xf4, 0xd0, 0x13, 0x0f, 0x24, 0x31, 0xeb,
  0xc2, 0x09, 0xe6, 0x3f, 0xfe, 0xc9, 0xe8, 0x07, 0x33, 0x14, 0x0e, 0x1a,
  0x19, 0xeb, 0x29, 0x33, 0x0c, 0x08, 0xfc, 0xeb, 0x13, 0x3b, 0x04, 0xf4,
  0xf6, 0x1b, 0xfd, 0xe0, 0x00, 0x08, 0xfc, 0x1b, 0x01, 0x07, 0xfb, 0xfe,
  0xf9, 0xe7, 0x2e, 0x20, 0xec, 0x0e, 0xd6, 0xe4, 0x20, 0xfc, 0xe5, 0xf7,
  0xd4, 0xfb, 0x48, 0x0a, 0x06, 0x03, 0xd3, 0x0b, 0x02, 0x36, 0xc5, 0xdc,
  0xe3, 0x06, 0x30, 0x17, 0xdd, 0xe9, 0xd2, 0x1d, 0x24, 0x08, 0xe8, 0x18,
  0x9b, 0x03, 0x3b, 0xdf, 0xf2, 0xe2, 0xc7, 0x21, 0x1b, 0x16, 0x25, 0x00,
  0xf0, 0x01, 0xeb, 0xf3, 0xfc, 0xf5, 0xf7, 0x0a, 0xe4, 0x44, 0x02, 0xfe,
  0xe0, 0xe4, 0xd4, 0x07, 0xf7, 0x0f, 0xec, 0x0e, 0xda, 0x39, 0xf7, 0x17,
  0x07, 0xee, 0x22, 0xf5, 0xf1, 0xf6, 0xca, 0x15, 0x09, 0x19, 0x03, 0xeb,
  0xeb, 0xc7, 0xfa, 0x05, 0xee, 0xf0, 0xf0, 0xf0, 0xd3, 0xff, 0xed, 0x14,
  0x2a, 0xed, 0xfe, 0x22, 0xf3, 0x2a, 0x21, 0xc3, 0xee, 0x10, 0xf5, 0xd7,
  0x09, 0xf6, 0xd2, 0x18, 0xf6, 0xdf, 0x2e, 0x1d, 0xd3, 0x1b, 0x0a, 0xed,
  0xed, 0x0a, 0xc9, 0x1c, 0x19, 0xd2, 0x29, 0xfa, 0xf1, 0x3d, 0x15, 0x10,
  0x36, 0xdb, 0xf9, 0x36, 0xfc, 0x05, 0xfc, 0x07, 0xf0, 0x0e, 0x21, 0x18,
  0x32, 0xf4, 0xe1, 0x0f, 0x05, 0x38, 0x38, 0xcc, 0xe3, 0x1c, 0xdd, 0x00,
  0x14, 0xf1, 0xf9, 0x3d, 0x03, 0x2d, 0x2f, 0xe8, 0xea, 0xdf, 0x30, 0x15,
  0xfa, 0xfa, 0xff, 0xff, 0x04, 0x00, 0x00, 0x00, 0xc8, 0x00, 0x00, 0x00,
  0xd2, 0x0a, 0x00, 0x00, 0xa8, 0xf3, 0xff, 0xff, 0xf6, 0x18, 0x00, 0x00,
  0x27, 0x09, 0x00, 0x00, 0xbe, 0xfa, 0xff, 0xff, 0xac, 0x0f, 0x00, 0x00,
  0x9d, 0xf9, 0xff, 0xff, 0x58, 0x03, 0x00, 0x00, 0xcf, 0x00, 0x00, 0x00,
  0xc8, 0x15, 0x00, 0x00, 0xe3, 0x10, 0x00, 0x00, 0x87, 0x0c, 0x00, 0x00,
  0xbb, 0xff, 0xff, 0xff, 0xf8, 0x10, 0x00, 0x00, 0xac, 0xfc, 0xff, 0xff,
  0x0a, 0xf7, 0xff, 0xff, 0x3e, 0x0b, 0x00, 0x00, 0x1d, 0x08, 0x00, 0x00,
  0x3f, 0xed, 0xff, 0xff, 0xfa, 0x0f, 0x00, 0x00, 0xdc, 0x16, 0x00, 0x00,
  0xc5, 0x13, 0x00, 0x00, 0x9a, 0x19, 0x00, 0x00, 0x01, 0xef, 0xff, 0xff,
  0xed, 0xf3, 0xff, 0xff, 0x56, 0x0f, 0x00, 0x00, 0x97, 0xe6, 0xff, 0xff,
  0x8f, 0x13, 0x00, 0x00, 0x95, 0x09, 0x00, 0x00, 0xac, 0x0a, 0x00, 0x00,
  0xf4, 0xe7, 0xff, 0xff, 0xf5, 0x10, 0x00, 0x00, 0xe6, 0xfc, 0xff, 0xff,
  0xb3, 0x17, 0x00, 0x00, 0xa6, 0x16, 0x00, 0x00, 0x17, 0x00, 0x00, 0x00,
  0x4a, 0x14, 0x00, 0x00, 0x59, 0x03, 0x00, 0x00, 0x2c, 0xfc, 0xff, 0xff,
  0xe5, 0xf0, 0xff, 0xff, 0x70, 0xfc, 0xff, 0xff, 0xdd, 0x0b, 0x00, 0x00,
  0xdf, 0x21, 0x00, 0x00, 0x11, 0xfe, 0xff, 0xff, 0xa4, 0x0d, 0x00, 0x00,
  0x5d, 0x04, 0x00, 0x00, 0x66, 0x0b, 0x00, 0x00, 0x7f, 0xf0, 0xff, 0xff,
  0xf3, 0x09, 0x00, 0x00, 0x47, 0x0d, 0x00, 0x00, 0xce, 0xfb, 0xff, 0xff,
  0x04, 0x00, 0x00, 0x00, 0xee, 0x02, 0x00, 0x00, 0xf5, 0x36, 0xcc, 0x0c,
  0x11, 0x0c, 0x0b, 0xcd, 0xb7, 0x09, 0x38, 0xd3, 0x09, 0xbf, 0x1a, 0x18,
  0xe2, 0xe0, 0x44, 0x0e, 0x33, 0x01, 0xe8, 0x00, 0x1a, 0x05, 0x06, 0xde,
  0xeb, 0x01, 0x41, 0xad, 0x18, 0xf1, 0x12, 0x4c, 0xd2, 0x19, 0xee, 0x0a,
  0xdf, 0x03, 0xf0, 0x27, 0x0a, 0x28, 0xca, 0xe7, 0x08, 0x2c, 0xee, 0xcc,
  0xdf, 0xd6, 0xf0, 0x34, 0x25, 0xdc, 0xed, 0x00, 0x01, 0xfc, 0xdf, 0x0b,
  0xed, 0xf3, 0x0a, 0xfc, 0x16, 0xc9, 0xee, 0x03, 0xd6, 0xe0, 0x11, 0xe2,
  0x05, 0xe8, 0xf9, 0xc5, 0xf8, 0xdb, 0x0f, 0xf6, 0xcd, 0xf3, 0xea, 0xff,
  0xf9, 0xdb, 0x0e, 0x1a, 0xf0, 0x26, 0x1c, 0x06, 0xca, 0xe9, 0xd4, 0xe9,
  0xf3, 0xda, 0x3c, 0x12, 0xfa, 0x39, 0x12, 0x5b, 0x03, 0x02, 0x2d, 0xd0,
  0x2d, 0x4b, 0x06, 0xfc, 0xfe, 0x01, 0x32, 0x0b, 0x5a, 0xee, 0x67, 0xd7,
  0x21, 0x42, 0xfe, 0xf9, 0xde, 0x18, 0xc1, 0x23, 0xd7, 0xfd, 0x4c, 0xe8,
  0x13, 0x17, 0x2d, 0xd0, 0xc5, 0xf3, 0x51, 0xbd, 0x6f, 0x1f, 0xd8, 0xb6,
  0x0c, 0x4c, 0xa2, 0x14, 0x85, 0xf7, 0x18, 0x96, 0xf3, 0x12, 0x58, 0x0e,
  0xcf, 0x78, 0xb7, 0x18, 0xc3, 0xf5, 0x00, 0x5e, 0x3a, 0x4a, 0xc5, 0x1c,
  0x06, 0x62, 0x32, 0xc1, 0x41, 0x04, 0x25, 0xc7, 0x1a, 0xf8, 0x2f, 0xed,
  0xc0, 0xf9, 0xe2, 0x16, 0x25, 0x3f, 0x4e, 0x66, 0xc7, 0x59, 0x99, 0x31,
  0xfa, 0x75, 0x32, 0xe4, 0xee, 0x49, 0xda, 0xce, 0x23, 0x44, 0x1e, 0x30,
  0xa4, 0xd9, 0x12, 0xcb, 0x00, 0x27, 0xd2, 0x0d, 0xf4, 0x11, 0x20, 0xe3,
  0x48, 0xe0, 0xfd, 0x11, 0x55, 0x22, 0x34, 0xcf, 0x1f, 0xb7, 0x44, 0xe9,
  0x07, 0xce, 0x4a, 0xf1, 0x1a, 0x3b, 0x05, 0xf3, 0xfe, 0xf5, 0xd2, 0x0d,
  0xd0, 0x3d, 0xca, 0x57, 0xe6, 0x20, 0xe1, 0xf5, 0x22, 0xf0, 0x38, 0xf7,
  0xf1, 0x15, 0xe0, 0x0d, 0x0b, 0x01, 0x15, 0xf4, 0xdb, 0xee, 0x3f, 0x0a,
  0x02, 0xdc, 0xfd, 0xdf, 0xfe, 0xed, 0xdf, 0x2d, 0xec, 0xe6, 0x01, 0xc5,
  0xc6, 0xef, 0x42, 0x15, 0xe5, 0x15, 0x2e, 0x36, 0x20, 0x18, 0xd4, 0x01,
  0xe9, 0x0b, 0xf1, 0x1d, 0xea, 0x0f, 0x03, 0x19, 0xff, 0x07, 0x02, 0x0e,
  0x21, 0x19, 0xeb, 0x19, 0x1d, 0xc0, 0xe1, 0x03, 0xda, 0x3f, 0x21, 0x2f,
  0x1e, 0x0a, 0x2d, 0xe2, 0xdf, 0xfb, 0xc9, 0x22, 0xd9, 0x09, 0x05, 0x05,
  0x0b, 0x14, 0x18, 0xe4, 0xcd, 0x14, 0x15, 0x09, 0xee, 0xea, 0xdb, 0xcd,
  0xfe, 0xea, 0xf0, 0xf6, 0xbf, 0xdd, 0xc6, 0xef, 0x05, 0xe1, 0x1b, 0x08,
  0xfe, 0x11, 0xe4, 0x3d, 0x1a, 0xf1, 0xd8, 0xd8, 0x14, 0xf6, 0x06, 0xef,
  0xd4, 0x1e, 0xf3, 0x17, 0x1e, 0x0e, 0x50, 0x12, 0xe0, 0x0a, 0xfa, 0x0f,
  0x3a, 0xec, 0x30, 0xf5, 0x18, 0xd4, 0x0a, 0xe5, 0x35, 0x0e, 0xe1, 0xde,
  0x0c, 0x05, 0x19, 0x1e, 0x01, 0x2a, 0xed, 0xfe, 0x0f, 0x44, 0xe9, 0xf3,
  0x29, 0xfc, 0x49, 0x0a, 0xee, 0x2f, 0x40, 0x4f, 0xbb, 0x42, 0x60, 0xe5,
  0x2c, 0xe0, 0xf8, 0x00, 0x21, 0x12, 0x33, 0x13, 0x4b, 0xa2, 0x3c, 0xfa,
  0x1d, 0x3e, 0x1a, 0x14, 0x35, 0xe9, 0xfc, 0x02, 0xff, 0xc7, 0x2d, 0x17,
  0xd7, 0x14, 0xf5, 0xd0, 0xf7, 0x33, 0x49, 0xb4, 0x7f, 0xff, 0xd9, 0xb8,
  0x27, 0x4e, 0x04, 0xd1, 0x31, 0x3c, 0xfe, 0xd6, 0xb4, 0x05, 0x45, 0x40,
  0xd4, 0x50, 0xfb, 0x52, 0xc9, 0xe9, 0x2b, 0x11, 0xd7, 0x70, 0x2a, 0x55,
  0x58, 0x16, 0xcd, 0x2a, 0xdb, 0x2c, 0x25, 0xe8, 0xdf, 0x33, 0x03, 0x15,
  0xca, 0xc5, 0x07, 0x05, 0x26, 0x40, 0xdb, 0x4e, 0x04, 0x0f, 0xf6, 0x1f,
  0xd6, 0xd7, 0x43, 0x10, 0xc7, 0x53, 0xe9, 0xf0, 0xd9, 0xfe, 0x29, 0x2b,
  0xa5, 0xdc, 0x42, 0xb0, 0x3e, 0xde, 0xdf, 0x12, 0xb5, 0xe2, 0x29, 0x87,
  0x32, 0xb5, 0x2b, 0x25, 0x65, 0x08, 0x4b, 0xde, 0xaf, 0xf1, 0xd8, 0xd0,
  0xd4, 0xba, 0x3c, 0x0e, 0xe0, 0x4f, 0x2d, 0x35, 0x2e, 0x27, 0xf6, 0xd3,
  0x05, 0x1f, 0x26, 0x1e, 0xd9, 0x11, 0x08, 0xf3, 0x12, 0xe9, 0x3d, 0x50,
  0x29, 0x0c, 0xb2, 0x0c, 0x1a, 0xee, 0x59, 0x16, 0x4c, 0xf6, 0x44, 0x15,
  0xed, 0x1d, 0xb4, 0x12, 0xe7, 0xc3, 0x06, 0xf8, 0x03, 0x1f, 0xb5, 0x6e,
  0xec, 0x2a, 0xf0, 0x52, 0x06, 0x0f, 0x08, 0xd7, 0xd0, 0xd6, 0xf6, 0x35,
  0x4c, 0x1d, 0x35, 0xd0, 0x11, 0x27, 0xd3, 0x1b, 0x25, 0xe8, 0x5c, 0x36,
  0x07, 0xc2, 0x03, 0xce, 0x03, 0x4f, 0xd8, 0x74, 0xc5, 0xd4, 0xfe, 0xf0,
  0xfc, 0xfd, 0xc1, 0xdc, 0x1c, 0x30, 0x0f, 0xd7, 0xae, 0x4a, 0xed, 0x4f,
  0x4f, 0x09, 0xf2, 0x25, 0x18, 0x3b, 0x01, 0xd3, 0x5b, 0x46, 0xf1, 0xe8,
  0xb7, 0x00, 0x21, 0xd8, 0x07, 0xff, 0x5d, 0xf0, 0x61, 0xed, 0x0d, 0xed,
  0xfe, 0x3a, 0x04, 0x16, 0xf7, 0x1c, 0xeb, 0xfa, 0xfc, 0x17, 0x24, 0xf4,
  0x11, 0x0c, 0xf7, 0xdb, 0xe1, 0x0d, 0x26, 0x06, 0x2c, 0xee, 0xed, 0x30,
  0x15, 0x17, 0xe2, 0x20, 0x08, 0xf7, 0x02, 0x51, 0xdc, 0x35, 0x00, 0xee,
  0x08, 0xe1, 0xce, 0xfc, 0x2c, 0xc8, 0x1f, 0x29, 0xdf, 0xf2, 0xf1, 0xfc,
  0xfe, 0x3a, 0xdb, 0x2b, 0xc4, 0x15, 0x35, 0x2c, 0xdc, 0xe1, 0x36, 0xc3,
  0x1e, 0xc6, 0xe8, 0xea, 0x06, 0xbf, 0x1a, 0xe2, 0x23, 0x12, 0xe8, 0x16,
  0x5a, 0xfc, 0x0d, 0xd5, 0xf4, 0x33, 0x19, 0xb7, 0x12, 0xe3, 0x1e, 0x16,
  0xfa, 0x16, 0x1e, 0xe0, 0x34, 0xd8, 0x03, 0xf1, 0x02, 0x1c, 0xd6, 0x0f,
  0x17, 0xf6, 0x00, 0x00, 0xca, 0xfe, 0xff, 0xff, 0x04, 0x00, 0x00, 0x00,
  0x2d, 0x00, 0x00, 0x00, 0xf6, 0x00, 0x84, 0x5b, 0xfb, 0x03, 0xf0, 0x16,
  0x81, 0x23, 0xcd, 0xd2, 0x07, 0xe6, 0xed, 0xea, 0xeb, 0x30, 0xa0, 0xc4,
  0x17, 0xf8, 0xe2, 0x12, 0x13, 0xa6, 0x3c, 0x20, 0x21, 0xad, 0x40, 0xf4,
  0x03, 0xf8, 0x3f, 0xfa, 0x36, 0x2f, 0xfb, 0xbb, 0x3c, 0xbd, 0x98, 0xf0,
  0x1e, 0x00, 0x00, 0x00, 0x06, 0xff, 0xff, 0xff, 0x04, 0x00, 0x00, 0x00,
  0x3c, 0x00, 0x00, 0x00, 0x7f, 0xfe, 0xff, 0xff, 0x00, 0x00, 0x00, 0x00,
  0xcc, 0x08, 0x00, 0x00, 0xf5, 0xfe, 0xff, 0xff, 0x23, 0xfc, 0xff, 0xff,
  0xe0, 0x01, 0x00, 0x00, 0xb2, 0xfe, 0xff, 0xff, 0x17, 0xfe, 0xff, 0xff,
  0xac, 0x06, 0x00, 0x00, 0x9c, 0x0b, 0x00, 0x00, 0x94, 0xfd, 0xff, 0xff,
  0xe4, 0x04, 0x00, 0x00, 0x2c, 0x0c, 0x00, 0x00, 0x35, 0x00, 0x00, 0x00,
  0xfa, 0xff, 0xff, 0xff, 0x4e, 0xff, 0xff, 0xff, 0x04, 0x00, 0x00, 0x00,
  0x0c, 0x00, 0x00, 0x00, 0xcb, 0x00, 0x00, 0x00, 0x6f, 0x00, 0x00, 0x00,
  0x90, 0xfd, 0xff, 0xff, 0x34, 0xff, 0xff, 0xff, 0x0f, 0x00, 0x00, 0x00,
  0x54, 0x4f, 0x43, 0x4f, 0x20, 0x43, 0x6f, 0x6e, 0x76, 0x65, 0x72, 0x74,
  0x65, 0x64, 0x2e, 0x00, 0x01, 0x00, 0x00, 0x00, 0x04, 0x00, 0x00, 0x00,
  0x00, 0xf9, 0xff, 0xff, 0x94, 0x01, 0x00, 0x00, 0x88, 0x01, 0x00, 0x00,
  0x7c, 0x01, 0x00, 0x00, 0x04, 0x00, 0x00, 0x00, 0x06, 0x00, 0x00, 0x00,
  0x50, 0x01, 0x00, 0x00, 0x04, 0x01, 0x00, 0x00, 0xbc, 0x00, 0x00, 0x00,
  0x74, 0x00, 0x00, 0x00, 0x38, 0x00, 0x00, 0x00, 0x04, 0x00, 0x00, 0x00,
  0xd2, 0xfe, 0xff, 0xff, 0x03, 0x00, 0x00, 0x00, 0x10, 0x00, 0x00, 0x00,
  0x04, 0x00, 0x00, 0x00, 0x01, 0x00, 0x00, 0x00, 0x0c, 0x00, 0x00, 0x00,
  0x01, 0x00, 0x00, 0x00, 0x00, 0x00, 0x00, 0x00, 0x00, 0x00, 0x0e, 0x00,
  0x1a, 0x00, 0x08, 0x00, 0x0c, 0x00, 0x10, 0x00, 0x07, 0x00, 0x14, 0x00,
  0x0e, 0x00, 0x00, 0x00, 0x00, 0x00, 0x00, 0x09, 0x01, 0x00, 0x00, 0x00,
  0x24, 0x00, 0x00, 0x00, 0x18, 0x00, 0x00, 0x00, 0x0c, 0x00, 0x00, 0x00,
  0x00, 0x00, 0x06, 0x00, 0x08, 0x00, 0x04, 0x00, 0x06, 0x00, 0x00, 0x00,
  0x00, 0x00, 0x80, 0x3f, 0x01, 0x00, 0x00, 0x00, 0x00, 0x00, 0x00, 0x00,
  0x01, 0x00, 0x00, 0x00, 0x08, 0x00, 0x00, 0x00, 0xca, 0xff, 0xff, 0xff,
  0x00, 0x00, 0x00, 0x08, 0x1c, 0x00, 0x00, 0x00, 0x10, 0x00, 0x00, 0x00,
  0x08, 0x00, 0x00, 0x00, 0x04, 0x00, 0x04, 0x00, 0x04, 0x00, 0x00, 0x00,
  0x01, 0x00, 0x00, 0x00, 0x08, 0x00, 0x00, 0x00, 0x03, 0x00, 0x00, 0x00,
  0x07, 0x00, 0x00, 0x00, 0x09, 0x00, 0x00, 0x00, 0x0a, 0x00, 0x00, 0x00,
  0x00, 0x00, 0x0e, 0x00, 0x14, 0x00, 0x00, 0x00, 0x08, 0x00, 0x0c, 0x00,
  0x07, 0x00, 0x10, 0x00, 0x0e, 0x00, 0x00, 0x00, 0x00, 0x00, 0x00, 0x08,
  0x1c, 0x00, 0x00, 0x00, 0x10, 0x00, 0x00, 0x00, 0x04, 0x00, 0x00, 0x00,
  0xba, 0xff, 0xff, 0xff, 0x00, 0x00, 0x00, 0x01, 0x01, 0x00, 0x00, 0x00,
  0x07, 0x00, 0x00, 0x00, 0x03, 0x00, 0x00, 0x00, 0x04, 0x00, 0x00, 0x00,
  0x05, 0x00, 0x00, 0x00, 0x06, 0x00, 0x00, 0x00, 0x00, 0x00, 0x0e, 0x00,
  0x16, 0x00, 0x00, 0x00, 0x08, 0x00, 0x0c, 0x00, 0x07, 0x00, 0x10, 0x00,
  0x0e, 0x00, 0x00, 0x00, 0x00, 0x00, 0x00, 0x08, 0x24, 0x00, 0x00, 0x00,
  0x18, 0x00, 0x00, 0x00, 0x0c, 0x00, 0x00, 0x00, 0x00, 0x00, 0x06, 0x00,
  0x08, 0x00, 0x07, 0x00, 0x06, 0x00, 0x00, 0x00, 0x00, 0x00, 0x00, 0x01,
  0x01, 0x00, 0x00, 0x00, 0x04, 0x00, 0x00, 0x00, 0x03, 0x00, 0x00, 0x00,
  0x01, 0x00, 0x00, 0x00, 0x02, 0x00, 0x00, 0x00, 0x03, 0x00, 0x00, 0x00,
  0x00, 0x00, 0x0a, 0x00, 0x10, 0x00, 0x04, 0x00, 0x08, 0x00, 0x0c, 0x00,
  0x0a, 0x00, 0x00, 0x00, 0x02, 0x00, 0x00, 0x00, 0x10, 0x00, 0x00, 0x00,
  0x04, 0x00, 0x00, 0x00, 0x01, 0x00, 0x00, 0x00, 0x01, 0x00, 0x00, 0x00,
  0x01, 0x00, 0x00, 0x00, 0x0b, 0x00, 0x00, 0x00, 0x01, 0x00, 0x00, 0x00,
  0x0c, 0x00, 0x00, 0x00, 0x01, 0x00, 0x00, 0x00, 0x0b, 0x00, 0x00, 0x00,
  0x0d, 0x00, 0x00, 0x00, 0xe4, 0x05, 0x00, 0x00, 0x48, 0x05, 0x00, 0x00,
  0xa8, 0x04, 0x00, 0x00, 0x34, 0x04, 0x00, 0x00, 0xb0, 0x03, 0x00, 0x00,
  0x0c, 0x03, 0x00, 0x00, 0x98, 0x02, 0x00, 0x00, 0x14, 0x02, 0x00, 0x00,
  0x88, 0x01, 0x00, 0x00, 0xe4, 0x00, 0x00, 0x00, 0x70, 0x00, 0x00, 0x00,
  0x3c, 0x00, 0x00, 0x00, 0x04, 0x00, 0x00, 0x00, 0xd8, 0xff, 0xff, 0xff,
  0x18, 0x00, 0x00, 0x00, 0x04, 0x00, 0x00, 0x00, 0x08, 0x00, 0x00, 0x00,
  0x49, 0x64, 0x65, 0x6e, 0x74, 0x69, 0x74, 0x79, 0x00, 0x00, 0x00, 0x00,
  0x02, 0x00, 0x00, 0x00, 0x01, 0x00, 0x00, 0x00, 0x03, 0x00, 0x00, 0x00,
  0x0c, 0x00, 0x0c, 0x00, 0x04, 0x00, 0x00, 0x00, 0x00, 0x00, 0x08, 0x00,
  0x0c, 0x00, 0x00, 0x00, 0x20, 0x00, 0x00, 0x00, 0x04, 0x00, 0x00, 0x00,
  0x12, 0x00, 0x00, 0x00, 0x64, 0x65, 0x6e, 0x73, 0x65, 0x5f, 0x44, 0x65,
  0x6e, 0x73, 0x65, 0x34, 0x5f, 0x69, 0x6e, 0x70, 0x75, 0x74, 0x00, 0x00,
  0x02, 0x00, 0x00, 0x00, 0x01, 0x00, 0x00, 0x00, 0x78, 0x00, 0x00, 0x00,
  0xc2, 0xfa, 0xff, 0xff, 0x00, 0x00, 0x00, 0x02, 0x60, 0x00, 0x00, 0x00,
  0x01, 0x00, 0x00, 0x00, 0x2c, 0x00, 0x00, 0x00, 0x04, 0x00, 0x00, 0x00,
  0xb4, 0xfa, 0xff, 0xff, 0x18, 0x00, 0x00, 0x00, 0x04, 0x00, 0x00, 0x00,
  0x01, 0x00, 0x00, 0x00, 0x00, 0x00, 0x00, 0x00, 0x00, 0x00, 0x00, 0x00,
  0x00, 0x00, 0x00, 0x00, 0x01, 0x00, 0x00, 0x00, 0x17, 0x56, 0xeb, 0x39,
  0x25, 0x00, 0x00, 0x00, 0x73, 0x65, 0x71, 0x75, 0x65, 0x6e, 0x74, 0x69,
  0x61, 0x6c, 0x5f, 0x32, 0x2f, 0x64, 0x65, 0x6e, 0x73, 0x65, 0x5f, 0x44,
  0x65, 0x6e, 0x73, 0x65, 0x36, 0x2f, 0x4d, 0x61, 0x74, 0x4d, 0x75, 0x6c,
  0x5f, 0x62, 0x69, 0x61, 0x73, 0x00, 0x00, 0x00, 0x01, 0x00, 0x00, 0x00,
  0x03, 0x00, 0x00, 0x00, 0x32, 0xfb, 0xff, 0xff, 0x00, 0x00, 0x00, 0x09,
  0x8c, 0x00, 0x00, 0x00, 0x03, 0x00, 0x00, 0x00, 0x44, 0x00, 0x00, 0x00,
  0x04, 0x00, 0x00, 0x00, 0xbc, 0xfb, 0xff, 0xff, 0x30, 0x00, 0x00, 0x00,
  0x24, 0x00, 0x00, 0x00, 0x18, 0x00, 0x00, 0x00, 0x04, 0x00, 0x00, 0x00,
  0x01, 0x00, 0x00, 0x00, 0x00, 0x00, 0x00, 0x00, 0x00, 0x00, 0x00, 0x00,
  0x00, 0x00, 0x00, 0x00, 0x01, 0x00, 0x00, 0x00, 0x6b, 0xa7, 0x3d, 0x3c,
  0x01, 0x00, 0x00, 0x00, 0x96, 0x4e, 0x87, 0x3f, 0x01, 0x00, 0x00, 0x00,
  0x1c, 0x2c, 0xbc, 0xbf, 0x39, 0x00, 0x00, 0x00, 0x73, 0x65, 0x71, 0x75,
  0x65, 0x6e, 0x74, 0x69, 0x61, 0x6c, 0x5f, 0x32, 0x2f, 0x64, 0x65, 0x6e,
  0x73, 0x65, 0x5f, 0x44, 0x65, 0x6e, 0x73, 0x65, 0x36, 0x2f, 0x4d, 0x61,
  0x74, 0x4d, 0x75, 0x6c, 0x2f, 0x52, 0x65, 0x61, 0x64, 0x56, 0x61, 0x72,
  0x69, 0x61, 0x62, 0x6c, 0x65, 0x4f, 0x70, 0x2f, 0x74, 0x72, 0x61, 0x6e,
  0x73, 0x70, 0x6f, 0x73, 0x65, 0x00, 0x00, 0x00, 0x02, 0x00, 0x00, 0x00,
  0x03, 0x00, 0x00, 0x00, 0x0f, 0x00, 0x00, 0x00, 0xd2, 0xfb, 0xff, 0xff,
  0x00, 0x00, 0x00, 0x09, 0x74, 0x00, 0x00, 0x00, 0x0b, 0x00, 0x00, 0x00,
  0x44, 0x00, 0x00, 0x00, 0x04, 0x00, 0x00, 0x00, 0x5c, 0xfc, 0xff, 0xff,
  0x30, 0x00, 0x00, 0x00, 0x24, 0x00, 0x00, 0x00, 0x18, 0x00, 0x00, 0x00,
  0x04, 0x00, 0x00, 0x00, 0x01, 0x00, 0x00, 0x00, 0x40, 0x00, 0x00, 0x00,
  0x00, 0x00, 0x00, 0x00, 0x00, 0x00, 0x00, 0x00, 0x01, 0x00, 0x00, 0x00,
  0xe0, 0xf6, 0x16, 0x3e, 0x01, 0x00, 0x00, 0x00, 0xf0, 0x72, 0x15, 0x41,
  0x01, 0x00, 0x00, 0x00, 0x5a, 0x06, 0xe2, 0xc1, 0x21, 0x00, 0x00, 0x00,
  0x73, 0x65, 0x71, 0x75, 0x65, 0x6e, 0x74, 0x69, 0x61, 0x6c, 0x5f, 0x32,
  0x2f, 0x64, 0x65, 0x6e, 0x73, 0x65, 0x5f, 0x44, 0x65, 0x6e, 0x73, 0x65,
  0x36, 0x2f, 0x42, 0x69, 0x61, 0x73, 0x41, 0x64, 0x64, 0x00, 0x00, 0x00,
  0x02, 0x00, 0x00, 0x00, 0x01, 0x00, 0x00, 0x00, 0x03, 0x00, 0x00, 0x00,
  0x5a, 0xfc, 0xff, 0xff, 0x00, 0x00, 0x00, 0x09, 0x6c, 0x00, 0x00, 0x00,
  0x09, 0x00, 0x00, 0x00, 0x40, 0x00, 0x00, 0x00, 0x04, 0x00, 0x00, 0x00,
  0xe4, 0xfc, 0xff, 0xff, 0x2c, 0x00, 0x00, 0x00, 0x20, 0x00, 0x00, 0x00,
  0x14, 0x00, 0x00, 0x00, 0x04, 0x00, 0x00, 0x00, 0x01, 0x00, 0x00, 0x00,
  0x80, 0xff, 0xff, 0xff, 0xff, 0xff, 0xff, 0xff, 0x01, 0x00, 0x00, 0x00,
  0xe4, 0xd4, 0x1e, 0x3d, 0x01, 0x00, 0x00, 0x00, 0x0f, 0x36, 0x1e, 0x41,
  0x01, 0x00, 0x00, 0x00, 0x00, 0x00, 0x00, 0x00, 0x1e, 0x00, 0x00, 0x00,
  0x73, 0x65, 0x71, 0x75, 0x65, 0x6e, 0x74, 0x69, 0x61, 0x6c, 0x5f, 0x32,
  0x2f, 0x64, 0x65, 0x6e, 0x73, 0x65, 0x5f, 0x44, 0x65, 0x6e, 0x73, 0x65,
  0x35, 0x2f, 0x52, 0x65, 0x6c, 0x75, 0x00, 0x00, 0x02, 0x00, 0x00, 0x00,
  0x01, 0x00, 0x00, 0x00, 0x0f, 0x00, 0x00, 0x00, 0xda, 0xfc, 0xff, 0xff,
  0x00, 0x00, 0x00, 0x02, 0x60, 0x00, 0x00, 0x00, 0x02, 0x00, 0x00, 0x00,
  0x2c, 0x00, 0x00, 0x00, 0x04, 0x00, 0x00, 0x00, 0xcc, 0xfc, 0xff, 0xff,
  0x18, 0x00, 0x00, 0x00, 0x04, 0x00, 0x00, 0x00, 0x01, 0x00, 0x00, 0x00,
  0x00, 0x00, 0x00, 0x00, 0x00, 0x00, 0x00, 0x00, 0x00, 0x00, 0x00, 0x00,
  0x01, 0x00, 0x00, 0x00, 0x7b, 0x8d, 0xa1, 0x38, 0x25, 0x00, 0x00, 0x00,
  0x73, 0x65, 0x71, 0x75, 0x65, 0x6e, 0x74, 0x69, 0x61, 0x6c, 0x5f, 0x32,
  0x2f, 0x64, 0x65, 0x6e, 0x73, 0x65, 0x5f, 0x44, 0x65, 0x6e, 0x73, 0x65,
  0x35, 0x2f, 0x4d, 0x61, 0x74, 0x4d, 0x75, 0x6c, 0x5f, 0x62, 0x69, 0x61,
  0x73, 0x00, 0x00, 0x00, 0x01, 0x00, 0x00, 0x00, 0x0f, 0x00, 0x00, 0x00,
  0x4a, 0xfd, 0xff, 0xff, 0x00, 0x00, 0x00, 0x09, 0x8c, 0x00, 0x00, 0x00,
  0x04, 0x00, 0x00, 0x00, 0x44, 0x00, 0x00, 0x00, 0x04, 0x00, 0x00, 0x00,
  0xd4, 0xfd, 0xff, 0xff, 0x30, 0x00, 0x00, 0x00, 0x24, 0x00, 0x00, 0x00,
  0x18, 0x00, 0x00, 0x00, 0x04, 0x00, 0x00, 0x00, 0x01, 0x00, 0x00, 0x00,
  0x00, 0x00, 0x00, 0x00, 0x00, 0x00, 0x00, 0x00, 0x00, 0x00, 0x00, 0x00,
  0x01, 0x00, 0x00, 0x00, 0x63, 0x01, 0xa8, 0x3b, 0x01, 0x00, 0x00, 0x00,
  0x60, 0xb1, 0x26, 0x3f, 0x01, 0x00, 0x00, 0x00, 0x56, 0x9f, 0x21, 0xbf,
  0x39, 0x00, 0x00, 0x00, 0x73, 0x65, 0x71, 0x75, 0x65, 0x6e, 0x74, 0x69,
  0x61, 0x6c, 0x5f, 0x32, 0x2f, 0x64, 0x65, 0x6e, 0x73, 0x65, 0x5f, 0x44,
  0x65, 0x6e, 0x73, 0x65, 0x35, 0x2f, 0x4d, 0x61, 0x74, 0x4d, 0x75, 0x6c,
  0x2f, 0x52, 0x65, 0x61, 0x64, 0x56, 0x61, 0x72, 0x69, 0x61, 0x62, 0x6c,
  0x65, 0x4f, 0x70, 0x2f, 0x74, 0x72, 0x61, 0x6e, 0x73, 0x70, 0x6f, 0x73,
  0x65, 0x00, 0x00, 0x00, 0x02, 0x00, 0x00, 0x00, 0x0f, 0x00, 0x00, 0x00,
  0x32, 0x00, 0x00, 0x00, 0xea, 0xfd, 0xff, 0xff, 0x00, 0x00, 0x00, 0x09,
  0x6c, 0x00, 0x00, 0x00, 0x08, 0x00, 0x00, 0x00, 0x40, 0x00, 0x00, 0x00,
  0x04, 0x00, 0x00, 0x00, 0x74, 0xfe, 0xff, 0xff, 0x2c, 0x00, 0x00, 0x00,
  0x20, 0x00, 0x00, 0x00, 0x14, 0x00, 0x00, 0x00, 0x04, 0x00, 0x00, 0x00,
  0x01, 0x00, 0x00, 0x00, 0x80, 0xff, 0xff, 0xff, 0xff, 0xff, 0xff, 0xff,
  0x01, 0x00, 0x00, 0x00, 0xe4, 0x2a, 0x76, 0x3c, 0x01, 0x00, 0x00, 0x00,
  0xb9, 0x34, 0x75, 0x40, 0x01, 0x00, 0x00, 0x00, 0x00, 0x00, 0x00, 0x00,
  0x1e, 0x00, 0x00, 0x00, 0x73, 0x65, 0x71, 0x75, 0x65, 0x6e, 0x74, 0x69,
  0x61, 0x6c, 0x5f, 0x32, 0x2f, 0x64, 0x65, 0x6e, 0x73, 0x65, 0x5f, 0x44,
  0x65, 0x6e, 0x73, 0x65, 0x34, 0x2f, 0x52, 0x65, 0x6c, 0x75, 0x00, 0x00,
  0x02, 0x00, 0x00, 0x00, 0x01, 0x00, 0x00, 0x00, 0x32, 0x00, 0x00, 0x00,
  0x6a, 0xfe, 0xff, 0xff, 0x00, 0x00, 0x00, 0x02, 0x60, 0x00, 0x00, 0x00,
  0x05, 0x00, 0x00, 0x00, 0x2c, 0x00, 0x00, 0x00, 0x04, 0x00, 0x00, 0x00,
  0x5c, 0xfe, 0xff, 0xff, 0x18, 0x00, 0x00, 0x00, 0x04, 0x00, 0x00, 0x00,
  0x01, 0x00, 0x00, 0x00, 0x00, 0x00, 0x00, 0x00, 0x00, 0x00, 0x00, 0x00,
  0x00, 0x00, 0x00, 0x00, 0x01, 0x00, 0x00, 0x00, 0xc0, 0x4e, 0xf0, 0x37,
  0x25, 0x00, 0x00, 0x00, 0x73, 0x65, 0x71, 0x75, 0x65, 0x6e, 0x74, 0x69,
  0x61, 0x6c, 0x5f, 0x32, 0x2f, 0x64, 0x65, 0x6e, 0x73, 0x65, 0x5f, 0x44,
  0x65, 0x6e, 0x73, 0x65, 0x34, 0x2f, 0x4d, 0x61, 0x74, 0x4d, 0x75, 0x6c,
  0x5f, 0x62, 0x69, 0x61, 0x73, 0x00, 0x00, 0x00, 0x01, 0x00, 0x00, 0x00,
  0x32, 0x00, 0x00, 0x00, 0xda, 0xfe, 0xff, 0xff, 0x00, 0x00, 0x00, 0x09,
  0x88, 0x00, 0x00, 0x00, 0x06, 0x00, 0x00, 0x00, 0x40, 0x00, 0x00, 0x00,
  0x04, 0x00, 0x00, 0x00, 0x64, 0xff, 0xff, 0xff, 0x2c, 0x00, 0x00, 0x00,
  0x20, 0x00, 0x00, 0x00, 0x14, 0x00, 0x00, 0x00, 0x04, 0x00, 0x00, 0x00,
  0x01, 0x00, 0x00, 0x00, 0x00, 0x00, 0x00, 0x00, 0x00, 0x00, 0x00, 0x00,
  0x01, 0x00, 0x00, 0x00, 0xed, 0x65, 0x6f, 0x3b, 0x01, 0x00, 0x00, 0x00,
  0xee, 0x55, 0xce, 0x3e, 0x01, 0x00, 0x00, 0x00, 0x21, 0x87, 0xed, 0xbe,
  0x39, 0x00, 0x00, 0x00, 0x73, 0x65, 0x71, 0x75, 0x65, 0x6e, 0x74, 0x69,
  0x61, 0x6c, 0x5f, 0x32, 0x2f, 0x64, 0x65, 0x6e, 0x73, 0x65, 0x5f, 0x44,
  0x65, 0x6e, 0x73, 0x65, 0x34, 0x2f, 0x4d, 0x61, 0x74, 0x4d, 0x75, 0x6c,
  0x2f, 0x52, 0x65, 0x61, 0x64, 0x56, 0x61, 0x72, 0x69, 0x61, 0x62, 0x6c,
  0x65, 0x4f, 0x70, 0x2f, 0x74, 0x72, 0x61, 0x6e, 0x73, 0x70, 0x6f, 0x73,
  0x65, 0x00, 0x00, 0x00, 0x02, 0x00, 0x00, 0x00, 0x32, 0x00, 0x00, 0x00,
  0x78, 0x00, 0x00, 0x00, 0x76, 0xff, 0xff, 0xff, 0x00, 0x00, 0x00, 0x09,
  0x74, 0x00, 0x00, 0x00, 0x07, 0x00, 0x00, 0x00, 0x50, 0x00, 0x00, 0x00,
  0x10, 0x00, 0x00, 0x00, 0x0c, 0x00, 0x14, 0x00, 0x04, 0x00, 0x08, 0x00,
  0x0c, 0x00, 0x10, 0x00, 0x0c, 0x00, 0x00, 0x00, 0x30, 0x00, 0x00, 0x00,
  0x24, 0x00, 0x00, 0x00, 0x18, 0x00, 0x00, 0x00, 0x04, 0x00, 0x00, 0x00,
  0x01, 0x00, 0x00, 0x00, 0x00, 0x00, 0x00, 0x00, 0x00, 0x00, 0x00, 0x00,
  0x00, 0x00, 0x00, 0x00, 0x01, 0x00, 0x00, 0x00, 0x7c, 0x7c, 0x00, 0x3c,
  0x01, 0x00, 0x00, 0x00, 0x00, 0xf8, 0x7f, 0x3f, 0x01, 0x00, 0x00, 0x00,
  0x00, 0xf8, 0x7f, 0xbf, 0x17, 0x00, 0x00, 0x00, 0x64, 0x65, 0x6e, 0x73,
  0x65, 0x5f, 0x44, 0x65, 0x6e, 0x73, 0x65, 0x34, 0x5f, 0x69, 0x6e, 0x70,
  0x75, 0x74, 0x5f, 0x69, 0x6e, 0x74, 0x38, 0x00, 0x02, 0x00, 0x00, 0x00,
  0x01, 0x00, 0x00, 0x00, 0x78, 0x00, 0x00, 0x00, 0x00, 0x00, 0x0e, 0x00,
  0x18, 0x00, 0x08, 0x00, 0x07, 0x00, 0x0c, 0x00, 0x10, 0x00, 0x14, 0x00,
  0x0e, 0x00, 0x00, 0x00, 0x00, 0x00, 0x00, 0x09, 0x54, 0x00, 0x00, 0x00,
  0x0a, 0x00, 0x00, 0x00, 0x38, 0x00, 0x00, 0x00, 0x10, 0x00, 0x00, 0x00,
  0x0c, 0x00, 0x0c, 0x00, 0x00, 0x00, 0x00, 0x00, 0x04, 0x00, 0x08, 0x00,
  0x0c, 0x00, 0x00, 0x00, 0x18, 0x00, 0x00, 0x00, 0x04, 0x00, 0x00, 0x00,
  0x01, 0x00, 0x00, 0x00, 0x80, 0xff, 0xff, 0xff, 0xff, 0xff, 0xff, 0xff,
  0x00, 0x00, 0x00, 0x00, 0x01, 0x00, 0x00, 0x00, 0x00, 0x00, 0x80, 0x3b,
  0x0d, 0x00, 0x00, 0x00, 0x49, 0x64, 0x65, 0x6e, 0x74, 0x69, 0x74, 0x79,
  0x5f, 0x69, 0x6e, 0x74, 0x38, 0x00, 0x00, 0x00, 0x02, 0x00, 0x00, 0x00,
  0x01, 0x00, 0x00, 0x00, 0x03, 0x00, 0x00, 0x00, 0x04, 0x00, 0x00, 0x00,
  0x4c, 0x00, 0x00, 0x00, 0x30, 0x00, 0x00, 0x00, 0x1c, 0x00, 0x00, 0x00,
  0x04, 0x00, 0x00, 0x00, 0xe6, 0xff, 0xff, 0xff, 0x00, 0x00, 0x00, 0x06,
  0x02, 0x00, 0x00, 0x00, 0x00, 0x00, 0x06, 0x00, 0x06, 0x00, 0x05, 0x00,
  0x06, 0x00, 0x00, 0x00, 0x00, 0x72, 0x0a, 0x00, 0x0e, 0x00, 0x07, 0x00,
  0x00, 0x00, 0x08, 0x00, 0x0a, 0x00, 0x00, 0x00, 0x00, 0x00, 0x00, 0x19,
  0x02, 0x00, 0x00, 0x00, 0x00, 0x00, 0x0a, 0x00, 0x0c, 0x00, 0x07, 0x00,
  0x00, 0x00, 0x08, 0x00, 0x0a, 0x00, 0x00, 0x00, 0x00, 0x00, 0x00, 0x09,
  0x04, 0x00, 0x00, 0x00

};